, 1610503
. 1206711
# 1002372
the 768194
in 445481
of 412228
die 381563
to 373927
and 368884
und 345974
der 343390
a 266297
AT 241743
is 197037
- 189199
that 186428
zu 153118
; 143523
ist 139299
I 128244
den 128053
von 126919
for 126008
&amp; 122027
das 116554
on 108151
it 101753
für 99825
an 97979
we 95732
es 94059
this 93059
you 92002
mit 91403
are 90067
with 88078
eine 87805
auf 87671
be 87431
wir 86799
: 83556
Sie 82507
nicht 82237
dass 79687
des 78352
as 78262
ein 76459
The 75336
ich 72896
was 72034
have 71060
im 66438
( 65693
) 65115
sich 64342
not 63137
werden 62546
&quot; 60478
dem 59666
? 59479
by 58817
sie 57221
sind 55766
at 54176
so 53309
s 53099
Die 53065
will 52212
which 51722
auch 51111
als 50010
from 49752
or 49655
apos 49463
quot 48763
can 47934
all 47061
um 46566
haben 46522
wie 45070
wird 44651
&apos;s 43951
Ich 42904
has 42599
also 40620
our 39802
oder 39399
über 37944
In 37743
And 37425
hat 36986
Das 36006
/ 35944
einer 35735
they 35724
einen 35694
er 34093
one 32358
European 32268
but 32069
aus 31905
diese 31723
können 31547
We 31042
Wir 30581
It 30468
about 30452
uns 30176
do 29879
man 29600
Und 29324
bei 28599
-- 28596
would 28479
your 28333
there 28327
Es 28300
more 27897
zur 27851
– 27553
what 27539
einem 27461
like 27115
their 27114
! 26697
Union 26601
war 26128
am 26034
wenn 25991
nur 25871
kann 25828
This 25092
been 24933
nach 24587
very 24474
its 24394
people 23721
-@@ 23671
aber 23583
us 23352
these 23277
dieser 23230
zum 22861
So 22819
un@@ 22422
my 21943
if 21857
noch 21680
durch 21598
up 21525
time 21402
sehr 21261
vor 21094
should 21009
sein 20881
out 20846
who 20292
other 20249
Der 19184
Mr 19173
wurde 19150
ver@@ 18389
EU 18372
only 18285
new 18258
er@@ 18200
an@@ 18181
them 18181
müssen 18117
Commission 18065
just 18008
re@@ 17964
when 17928
must 17726
because 17641
’ 17509
were 17444
daß 17341
into 17304
Kommission 17197
mehr 17155
alle 17127
&apos;t 16909
gibt 16838
diesem 16832
me 16762
hier 16627
no 16511
... 16380
he 16331
some 15883
ten 15652
de 15588
had 15498
in@@ 15424
now 15216
Herr 15074
te 15012
way 14950
President 14942
make 14648
than 14641
dann 14613
möchte 14462
ge@@ 14425
see 14396
t 14292
k@@ 14171
know 14068
But 14050
eines 14037
need 14036
any 13999
o 13985
en@@ 13930
how 13867
dieses 13866
Menschen 13863
i 13852
world 13844
S@@ 13807
years 13738
work 13735
ihre 13650
first 13531
mich 13500
e 13439
here 13318
“ 13315
Wenn 13297
habe 13280
B@@ 13152
ab@@ 13132
Hotel 13086
A 13081
where 13064
s@@ 12974
bis 12970
Europäischen 12963
&apos;re 12947
his 12933
most 12930
use 12869
en 12825
think 12772
P@@ 12732
Ihnen 12721
Parliament 12681
then 12632
% 12615
well 12562
take 12535
K@@ 12512
unsere 12478
t@@ 12472
da 12449
those 12438
many 12373
You 12322
States 12284
Europe 12224
keine 12188
two 12135
A@@ 12071
immer 11954
ing 11899
countries 11878
such 11873
get 11784
d@@ 11766
important 11747
muss 11716
G@@ 11686
want 11650
2 11634
Aber 11546
right 11540
C@@ 11536
Member 11426
going 11324
able 11286
anderen 11282
over 11280
T@@ 11278
report 11246
vom 11241
could 11165
between 11139
diesen 11073
b@@ 11009
system 10905
1 10883
made 10862
unter 10855
D@@ 10784
be@@ 10768
zwischen 10738
M@@ 10701
E@@ 10690
dies 10667
being 10649
even 10644
H@@ 10643
g@@ 10636
If 10613
Ver@@ 10519
Präsident 10461
Zeit 10450
etwas 10445
o@@ 10405
damit 10381
machen 10370
mir 10350
F@@ 10268
L@@ 10227
Welt 10199
m@@ 10180
really 10162
Council 10113
p@@ 10100
e@@ 10027
end 10024
sehen 9976
much 9922
ein@@ 9913
n@@ 9900
y 9856
An@@ 9828
go 9817
m 9802
weil 9734
good 9670
f@@ 9659
N@@ 9581
say 9562
same 9551
sch@@ 9504
sowie 9472
Parlament 9442
said 9387
Bericht 9380
through 9374
3 9362
R@@ 9338
information 9325
W@@ 9320
ed 9320
ter 9314
z@@ 9217
There 9204
ch@@ 9203
aus@@ 9111
Jahren 9092
year 9071
That 9018
Mitgliedstaaten 8992
li@@ 8940
andere 8934
de@@ 8934
wurden 8895
Diese 8881
al@@ 8858
sondern 8850
&gt; 8836
&lt; 8836
meine 8825
ung 8743
unserer 8733
u@@ 8660
support 8637
O@@ 8613
st@@ 8601
viele 8594
heute 8550
zwei 8546
i@@ 8541
10 8530
ation 8526
gegen 8479
sagen 8475
own 8470
They 8466
c@@ 8457
part 8417
Frau 8414
may 8381
Europa 8366
things 8363
policy 8315
geht 8307
different 8279
y@@ 8279
auf@@ 8235
seine 8185
ent@@ 8161
jetzt 8152
place 8137
viel 8079
di@@ 8074
ers 8050
bin 8038
tun 8024
v@@ 7965
after 7952
neue 7899
her 7884
al 7883
Jahr 7864
denn 7846
fact 7763
Ab@@ 7762
actually 7758
order 7733
find 7730
Im 7724
denen 7722
Ihre 7713
a@@ 7698
ts 7660
wirklich 7624
„ 7573
ihr 7565
4 7559
back 7549
ganz 7546
V@@ 7540
does 7526
something 7512
Frage 7492
würde 7485
last 7484
political 7474
point 7453
Sch@@ 7443
hotel 7385
ihrer 7381
possible 7379
still 7366
used 7366
um@@ 7320
gen 7319
sollten 7316
5 7313
Was 7293
sollte 7293
human 7280
selbst 7269
country 7253
waren 7245
or@@ 7241
ar@@ 7232
life 7232
great 7224
today 7219
ti@@ 7189
Art 7173
don 7160
economic 7152
vor@@ 7148
Europäische 7144
ate 7129
finden 7123
ohne 7113
As 7109
Jahre 7103
schon 7099
le 7087
zu@@ 7086
&apos;ve 7085
jedoch 7085
wieder 7077
What 7076
Be@@ 7059
look 7038
Wie 7031
wo 7023
market 6995
area 6994
l@@ 6988
day 6978
Er 6975
before 6971
d 6950
J@@ 6916
rights 6897
el@@ 6895
einige 6894
speaker 6859
course 6840
believe 6829
put 6826
dazu 6825
r@@ 6816
h@@ 6815
every 6808
bereits 6801
ge 6786
hatte 6766
against 6737
sten 6711
Now 6706
both 6706
within 6706
neuen 6701
social 6695
einfach 6670
development 6668
public 6668
ri@@ 6662
too 6653
ob 6632
wissen 6619
&apos;m 6608
geben 6582
91 6576
l 6569
come 6555
93 6553
little 6541
gut 6539
es@@ 6535
über@@ 6507
down 6506
” 6503
Ein 6501
I@@ 6499
long 6490
dafür 6452
number 6449
therefore 6440
20 6433
w@@ 6430
wollen 6429
did 6426
allen 6425
For 6410
without 6410
future 6407
under 6406
si@@ 6403
europäischen 6374
ungen 6341
Entwicklung 6315
ern 6307
amp 6296
three 6283
kommen 6282
around 6280
Ein@@ 6266
k 6259
darauf 6229
Rat 6223
ungs@@ 6198
already 6162
problem 6157
question 6141
30 6137
j@@ 6135
Arbeit 6116
du 6109
.@@ 6105
set 6102
on@@ 6095
why 6085
international 6068
ro@@ 6058
data 6027
give 6024
thing 5988
Aus@@ 5982
high 5979
example 5974
Leben 5962
alles 5957
change 5954
Dies 5950
Z@@ 5948
nun 5946
le@@ 5895
In@@ 5887
ihren 5879
case 5877
g 5876
at@@ 5834
ated 5815
b 5785
view 5711
kind 5689
Land 5674
means 5665
process 5652
liegt 5647
next 5632
ale 5617
free 5617
Er@@ 5616
each 5607
she 5585
Re@@ 5581
Eine 5576
cannot 5572
few 5556
seiner 5555
Mit 5534
level 5522
st 5519
Unternehmen 5510
lassen 5506
again 5481
help 5470
Problem 5451
Teil 5426
während 5403
se 5399
ihnen 5389
drei 5388
stellen 5388
Also 5381
gehen 5367
th@@ 5359
called 5350
davon 5315
better 5314
unseren 5310
real 5292
doch 5289
wäre 5289
n 5270
lot 5263
best 5262
darüber 5259
services 5249
am@@ 5245
bringen 5226
Vor@@ 5225
energy 5215
einmal 5214
6 5200
c 5198
ja 5188
enden 5185
Informationen 5181
He 5172
z 5172
dis@@ 5171
te@@ 5169
situation 5166
available 5150
small 5147
got 5136
All 5124
stehen 5119
em@@ 5109
room 5108
per 5103
ens 5095
men 5083
ersten 5079
issue 5079
another 5071
sp@@ 5062
meiner 5059
Al@@ 5047
u 5047
könnte 5045
Bereich 5037
ab 5034
Maßnahmen 5014
together 5010
ins 4982
p 4975
ert 4972
wichtig 4948
U@@ 4946
Herrn 4942
China 4941
allem 4935
ische 4935
ting 4929
form 4915
Dinge 4891
national 4889
Commissioner 4884
h 4876
lichen 4873
products 4866
Lage 4864
When 4859
particular 4840
always 4839
clear 4833
Internet 4831
city 4831
proposal 4831
debate 4829
financial 4828
service 4809
since 4806
möglich 4802
working 4798
Länder 4788
far 4780
letzten 4778
less 4774
problems 4768
con@@ 4762
weiter 4754
50 4750
ly 4747
Beispiel 4739
15 4736
im@@ 4736
ger 4733
sagte 4730
during 4725
dort 4721
common 4719
ende 4711
et@@ 4708
seit 4703
7 4701
ch 4700
quality 4689
eren 4681
Un@@ 4680
lich 4675
Leute 4668
business 4666
women 4664
kein 4656
Als 4651
lo@@ 4642
el 4635
große 4632
op@@ 4628
ste 4626
tes 4622
power 4619
done 4617
taken 4606
using 4600
off 4598
2009 4590
bar 4576
liche 4576
ischen 4569
pro@@ 4563
dabei 4556
co@@ 4552
unter@@ 4543
St@@ 4541
bietet 4541
However 4530
chen 4529
children 4525
hope 4518
ating 4515
Fall 4503
based 4495
start 4488
position 4486
kommt 4482
ar 4465
unser 4451
whole 4449
areas 4446
let 4441
Hier 4440
sh@@ 4439
großen 4438
large 4437
x 4428
gen@@ 4419
Committee 4417
Für 4399
Kinder 4398
la@@ 4393
water 4389
doing 4386
Seite 4366
it@@ 4362
Frauen 4358
making 4355
become 4335
systems 4333
ter@@ 4328
Our 4325
ihn 4315
ations 4313
8 4312
ra@@ 4312
while 4311
Daten 4303
Fragen 4297
given 4294
vielleicht 4293
land 4292
welche 4288
These 4286
old 4285
citizens 4280
measures 4276
beim 4274
gt 4272
including 4271
ant 4266
se@@ 4266
soll 4264
group 4261
100 4259
steht 4253
Ländern 4248
might 4245
agreement 4221
whether 4210
politischen 4209
million 4205
Weise 4201
is@@ 4199
him 4192
company 4181
Man 4174
erhalten 4160
natürlich 4158
access 4157
security 4137
System 4132
der@@ 4129
ensure 4123
gemacht 4121
Tag 4120
&apos; 4117
On 4117
ad@@ 4106
Parlaments 4097
United 4093
Vorschlag 4089
E 4087
insbesondere 4081
Weg 4075
ie 4073
genau 4072
further 4070
second 4065
eigenen 4061
Geschichte 4060
ler 4058
Ende 4054
seinen 4054
Probleme 4049
as@@ 4045
needs 4030
Zukunft 4027
to@@ 4020
macht 4019
law 4016
x@@ 4016
Rahmen 4013
create 4007
glaube 4002
Ziel 4000
ur@@ 3996
Ihr 3985
ago 3984
Unterstützung 3980
ber@@ 3979
Bürger 3977
sogar 3973
besteht 3956
vote 3954
12 3952
necessary 3952
Zusammenarbeit 3949
shall 3939
sk@@ 3934
ere 3932
ä@@ 3932
worden 3928
provide 3926
ag@@ 3925
arbeiten 3923
inter@@ 3923
health 3919
found 3917
au@@ 3916
New 3915
daran 3915
matter 3911
open 3909
USA 3900
erste 3898
offers 3892
deren 3890
2010 3889
technology 3887
action 3879
money 3876
terms 3876
show 3875
3@@ 3872
Kollegen 3869
us@@ 3850
idea 3848
werde 3844
Mar@@ 3843
hatten 3843
Millionen 3841
Stadt 3839
ten@@ 3836
Namen 3829
offer 3829
ck@@ 3825
away 3822
state 3822
la 3820
ask 3817
call 3815
Regierung 3798
To 3789
ma@@ 3787
certain 3782
hand 3781
nehmen 3773
Y@@ 3771
At 3766
line 3755
gesagt 3749
C 3743
cooperation 3742
Recht 3724
control 3723
jeder 3720
Community 3718
full 3713
Sicherheit 3711
po@@ 3710
gerade 3708
em 3704
ger@@ 3702
2008 3698
ne 3689
Auf 3680
ke 3680
however 3674
mo@@ 3671
weniger 3667
Möglichkeit 3664
global 3659
Bedeutung 3657
never 3650
ac@@ 3647
ates 3639
bi@@ 3637
Staaten 3636
Bei 3633
ted 3631
vielen 3628
et 3626
rooms 3625
issues 3623
Thema 3622
führen 3618
nichts 3617
stellt 3610
r 3608
f 3607
fast 3605
big 3602
aller 3601
brauchen 3601
schen 3599
experience 3590
würden 3589
Con@@ 3588
talk 3571
denke 3568
T 3565
particularly 3560
pro 3554
House 3553
halten 3553
side 3551
food 3550
age 3548
research 3547
mein 3542
protection 3540
US 3535
government 3534
No 3532
ous 3532
besonders 3518
legal 3516
ta@@ 3511
124 3510
present 3510
result 3509
days 3508
quite 3505
Ar@@ 3500
re 3499
With 3496
erreichen 3495
S 3492
qu@@ 3487
design 3485
itself 3482
vi@@ 3482
pre@@ 3479
single 3473
9 3471
ei@@ 3471
once 3471
etwa 3460
light 3454
2@@ 3453
ging 3451
B 3447
tell 3447
trade 3447
main 3441
Mrs 3430
ans 3430
ine 3430
verschiedenen 3427
ir@@ 3420
Group 3418
current 3418
D 3413
project 3411
fen 3410
Politik 3408
stay 3394
bo@@ 3390
gab 3388
person 3383
One 3374
third 3368
times 3368
production 3367
ent 3366
often 3364
25 3359
Euro 3358
companies 3356
Nun 3353
da@@ 3350
Grund 3346
Ro@@ 3346
les 3338
daher 3330
home 3329
conditions 3327
building 3325
schaffen 3325
Mo@@ 3324
2000 3319
Well 3318
no@@ 3317
weiß 3312
2007 3309
weitere 3309
special 3308
industry 3306
ken 3305
ic 3299
os 3297
basis 3293
region 3292
sprechen 3292
indem 3290
ul@@ 3289
page 3287
least 3286
Auf@@ 3284
muß 3284
sen 3283
Kommissar 3282
role 3279
tatsächlich 3277
meisten 3274
Fraktion 3271
play 3260
zwar 3257
left 3253
unterstützen 3251
ol@@ 3250
innerhalb 3249
looking 3249
unserem 3247
feel 3244
makes 3242
om@@ 3237
ihm 3231
ds 3229
&apos;ll 3227
yet 3227
stand 3223
live 3218
besser 3217
especially 3217
sector 3217
isch 3215
Zimmer 3213
ve 3212
40 3211
Auch 3211
Nach 3211
name 3211
red 3208
leben 3207
sowohl 3205
environment 3199
mal 3199
zeigen 3198
having 3191
ak@@ 3190
How 3189
family 3184
respect 3171
Rolle 3168
understand 3167
Seiten 3160
bedeutet 3160
18@@ 3153
möchten 3152
four 3151
fully 3148
started 3144
ings 3138
zusammen 3138
reason 3137
ze 3137
Verfügung 3133
gegenüber 3130
various 3130
ap@@ 3129
X@@ 3125
close 3122
könnten 3120
Über@@ 3115
specific 3113
len 3107
sicher 3107
site 3107
crisis 3103
rules 3098
ever 3096
programme 3088
Richtlinie 3081
gi@@ 3080
keinen 3079
ding 3076
enough 3073
Ihrer 3071
so@@ 3071
4@@ 3069
local 3068
� 3067
rather 3065
Meinung 3064
beiden 3063
km 3060
words 3060
management 3056
located 3054
mean 3052
try 3047
wish 3046
alen 3045
continue 3044
budget 3042
Um 3035
until 3034
major 3033
ko@@ 3022
Situation 3013
opportunity 3013
taking 3012
los 3008
Punkt 3007
Co@@ 3002
erte 2997
jeden 2995
wi@@ 2995
her@@ 2991
account 2990
art 2989
11 2987
ges 2986
came 2982
nämlich 2982
ex@@ 2980
field 2971
ator 2970
konnte 2970
ange@@ 2968
bit 2965
darin 2964
Dieses 2960
ster 2959
bekommen 2956
Ge@@ 2953
mi@@ 2953
paar 2951
thought 2949
kleinen 2948
ons 2946
ber 2941
decision 2934
gute 2933
resolution 2933
growth 2929
politische 2929
general 2927
thank 2926
europäische 2923
den@@ 2920
positive 2920
zi@@ 2920
00 2918
ben 2918
Lösung 2915
everything 2914
forward 2913
ung@@ 2910
society 2909
rapporteur 2906
che 2899
einigen 2898
denken 2897
Zu@@ 2896
space 2896
meinen 2893
comes 2890
percent 2890
towards 2890
institutions 2887
sa@@ 2884
O 2882
list 2882
Da 2880
tions 2878
Bo@@ 2876
ci@@ 2876
Ihren 2873
internationalen 2873
0@@ 2870
ally 2869
resources 2868
individual 2867
directive 2863
for@@ 2863
nie 2860
regard 2858
modern 2857
ihrem 2856
Ma@@ 2847
ne@@ 2843
rate 2843
ts@@ 2842
ves 2842
hin@@ 2841
subject 2841
19@@ 2839
Form 2837
private 2837
Pro@@ 2833
seen 2833
sen@@ 2831
personal 2830
ors 2827
Deshalb 2826
vier 2826
gentlemen 2825
bring 2819
sei 2813
Artikel 2808
24 2805
sense 2805
direkt 2803
economy 2803
ing@@ 2801
per@@ 2799
dessen 2798
Geld 2796
2006 2795
ut@@ 2794
zurück 2794
entfernt 2792
five 2788
zeigt 2787
bieten 2786
seinem 2784
Ort 2773
went 2773
durch@@ 2772
verstehen 2772
18 2771
nen 2767
schnell 2766
est 2764
several 2762
tra@@ 2762
Haus 2761
Mittel 2761
increase 2761
par@@ 2761
approach 2760
nutzen 2760
befindet 2759
Hilfe 2752
Unter@@ 2752
Kunden 2751
months 2751
Ch@@ 2750
ü@@ 2750
following 2746
Zusammenhang 2745
ischer 2742
UNDERSCORE 2740
do@@ 2737
klar 2737
6@@ 2735
air 2733
ser@@ 2731
questions 2725
EUR 2723
key 2723
nächsten 2720
eln 2716
took 2716
World 2715
difficult 2712
aid 2711
all@@ 2707
erung 2705
meinem 2698
man@@ 2697
ker 2696
tr@@ 2696
bitte 2692
others 2692
Gesellschaft 2691
agree 2691
Dieser 2689
car 2684
Alle 2681
Mal 2680
w 2680
Gemeinschaft 2676
gel@@ 2674
lange 2674
mit@@ 2672
young 2671
sure 2665
000 2664
ways 2664
5@@ 2657
Dank 2656
allow 2653
ability 2652
weit 2651
Di@@ 2650
welcome 2647
My 2646
centre 2644
me@@ 2644
range 2644
software 2641
X 2640
transport 2639
value 2638
gehört 2637
product 2636
body 2634
hard 2634
Germany 2633
hin 2633
house 2630
erten 2628
Region 2622
Treaty 2621
zurück@@ 2621
ganze 2620
short 2618
sieht 2618
natural 2617
Wirtschaft 2611
moment 2611
sti@@ 2611
wenig 2607
online 2604
German 2601
Kon@@ 2601
sche 2601
Par@@ 2600
beautiful 2596
interest 2594
hätte 2593
points 2593
solution 2592
Um@@ 2591
term 2591
ur 2591
price 2588
themselves 2588
living 2586
sollen 2586
attention 2584
Po@@ 2581
nature 2581
progress 2581
ene 2577
true 2574
14 2573
Programm 2568
res 2568
across 2561
led 2560
&apos;d 2558
ö@@ 2558
history 2551
period 2551
simply 2551
framework 2549
oft 2549
recht 2548
keep 2546
care 2543
th 2542
Let 2541
politik 2540
M 2537
erst 2534
il@@ 2534
Sp@@ 2533
minutes 2532
setzen 2531
Uhr 2527
je 2526
tion 2524
Service 2523
groups 2520
En@@ 2515
Ebene 2511
ig@@ 2510
coming 2508
licher 2508
heart 2504
solche 2502
ce 2500
ran@@ 2500
effective 2499
he@@ 2499
+ 2496
works 2495
story 2493
education 2489
2005 2487
Madam 2487
deal 2487
step 2487
Finanz@@ 2486
text 2485
language 2483
Thank 2481
known 2480
STAR 2477
Inter@@ 2475
ziehen 2475
amendments 2470
wanted 2470
didn 2469
elle 2469
among 2466
content 2465
ß@@ 2464
spielen 2461
gilt 2460
warum 2460
half 2458
top 2458
darum 2456
helfen 2454
kleine 2453
G 2451
costs 2449
L 2448
ati@@ 2447
fragen 2446
along 2445
zen 2445
hinaus 2444
opinion 2443
safety 2442
= 2440
past 2437
16 2434
Schutz 2433
concerned 2432
deshalb 2432
war@@ 2431
Bild 2430
Here 2430
fall 2429
cht 2425
ladies 2424
besten 2423
Arbeits@@ 2422
Grund@@ 2422
environmental 2422
Haupt@@ 2421
school 2421
De@@ 2420
almost 2419
version 2419
above 2418
standards 2418
nach@@ 2417
wei@@ 2417
Members 2416
adopted 2416
ha@@ 2415
book 2414
Unsere 2410
low 2409
responsibility 2409
Präsidentin 2407
Li@@ 2406
ganzen 2406
mer@@ 2405
que 2405
share 2405
di 2403
mar@@ 2398
An 2397
needed 2394
Le@@ 2393
activities 2392
heißt 2391
darf 2390
later 2389
legislation 2389
September 2387
Antwort 2386
proposals 2386
v 2385
Europas 2383
K 2383
öffentlichen 2383
60 2382
ausge@@ 2382
führt 2382
results 2381
State 2380
pe@@ 2380
longer 2378
non 2377
alten 2376
simple 2375
though 2374
ru@@ 2373
ty 2372
ses 2371
fer@@ 2367
Aussprache 2365
Produkte 2365
su@@ 2365
due 2363
hoffe 2362
move 2362
7@@ 2358
tri@@ 2355
easy 2353
members 2353
Bar@@ 2349
under@@ 2349
trying 2347
mon@@ 2345
Rates 2344
ebenfalls 2344
ob@@ 2340
provided 2339
end@@ 2337
Hotels 2330
Person 2329
é@@ 2329
turn 2327
serious 2326
wichtige 2326
betrifft 2324
ner 2322
risk 2322
Wasser 2321
over@@ 2320
TV 2317
ft 2316
Because 2313
Rechte 2313
pi@@ 2312
2004 2308
Software 2308
ho@@ 2305
greater 2304
excellent 2302
dürfen 2301
8@@ 2300
nothing 2297
P 2296
love 2296
bar@@ 2294
ellen 2293
Richtung 2292
Africa 2291
principle 2291
democracy 2289
community 2288
Bezug 2287
Idee 2287
verschiedene 2287
importance 2286
asked 2285
handelt 2284
Se@@ 2281
music 2277
.com 2276
9@@ 2275
kam 2275
clearly 2274
Personen 2272
changes 2272
behalf 2268
sort 2268
weiterhin 2267
findet 2266
Mon@@ 2265
cultural 2265
ou@@ 2264
versuchen 2264
developed 2263
gleichen 2262
projects 2257
Her@@ 2254
liches 2254
13 2253
sub@@ 2253
go@@ 2252
sozialen 2252
Demokratie 2250
Sache 2250
kt 2249
ma 2245
Möglichkeiten 2244
location 2244
plan 2244
favour 2243
jede 2242
run 2242
wegen 2241
answer 2240
car@@ 2240
nationalen 2240
night 2239
force 2238
hi@@ 2238
ff@@ 2234
After 2232
Prozent 2232
century 2232
policies 2232
town 2232
Ex@@ 2230
strategy 2230
2001 2228
sagt 2225
Abstimmung 2219
Raum 2219
son 2219
del 2216
created 2215
500 2214
80 2214
ise 2212
Car@@ 2211
ep@@ 2211
bleiben 2209
richtig 2209
eb@@ 2205
jedes 2205
recent 2205
Gruppe 2202
Reihe 2202
Doch 2199
achieve 2199
sc@@ 2199
built 2198
sea 2198
entwickelt 2197
ph@@ 2196
ationen 2195
involved 2194
read 2194
completely 2192
include 2192
Rechts@@ 2191
peace 2191
interesting 2190
takes 2190
bel@@ 2188
cost 2188
ure 2188
aufgrund 2186
responsible 2186
test 2186
hours 2183
mind 2183
bzw. 2182
freedom 2182
face 2181
customers 2179
Kosten 2178
Zugang 2178
kon@@ 2178
Lo@@ 2177
wer@@ 2177
gu@@ 2172
2003 2169
du@@ 2168
developing 2167
via 2164
parts 2162
gestellt 2160
deutlich 2159
strong 2158
ra 2156
mer 2155
tigen 2154
Ansicht 2153
fundamental 2151
pl@@ 2150
ums 2148
brain 2147
statt 2147
zusammen@@ 2147
ck 2146
aten 2144
either 2144
unterstützt 2143
com@@ 2142
International 2141
ca 2141
Tatsache 2139
pay 2136
ali@@ 2135
application 2135
dern 2134
— 2133
erreicht 2132
ary 2130
eigentlich 2130
Menschenrechte 2128
gebracht 2127
ka 2127
computer 2126
pa@@ 2126
meeting 2123
stage 2123
ell 2122
Verantwortung 2121
gesehen 2121
jedem 2120
essential 2118
voll 2117
später 2114
thinking 2114
tige 2114
ec@@ 2113
climate 2111
Markt 2110
Website 2109
ie@@ 2109
American 2107
Interesse 2105
York 2105
tern 2105
training 2105
job 2102
Gebiet 2101
Projekt 2101
bad 2100
bekannt 2100
ach@@ 2099
authorities 2099
model 2099
tragen 2099
website 2098
employment 2097
pages 2097
tic 2096
Minuten 2094
Or@@ 2094
amount 2094
proposed 2094
eh@@ 2093
complete 2090
gern 2090
® 2090
fünf 2088
ic@@ 2088
cases 2083
material 2083
200 2082
team 2082
ens@@ 2080
gegeben 2078
competition 2077
extremely 2076
Daher 2075
mis@@ 2073
Ziele 2071
America 2068
tre@@ 2068
staff 2067
lang 2066
related 2064
är@@ 2064
Th@@ 2063
bei@@ 2063
ern@@ 2062
outside 2062
auszu@@ 2061
ina 2061
Strategie 2060
17 2058
2002 2058
Deutschland 2058
ni@@ 2058
probably 2057
lives 2056
ters 2055
talking 2051
type 2051
bu@@ 2049
interests 2049
Haushalts@@ 2048
act 2046
sts 2045
upon 2045
Von 2044
early 2044
views 2043
regions 2041
Qualität 2038
total 2038
enjoy 2037
fe 2035
enen 2034
says 2034
ia 2032
Am 2031
R 2031
and@@ 2031
week 2031
ches 2030
F 2029
up@@ 2029
saying 2028
Gu@@ 2027
men@@ 2025
user 2024
genommen 2023
wide 2023
ative 2022
ded 2022
population 2022
wer 2022
est@@ 2021
Bedingungen 2019
goes 2018
Technologie 2016
gar 2013
bereich 2012
Institutionen 2010
Auswirkungen 2009
bereit 2009
konnten 2009
billion 2008
effect 2008
ones 2005
wollte 2005
getting 2004
technical 2003
Schritt 2001
Umsetzung 2001
required 2000
wirtschaftlichen 2000
addition 1999
Verfahren 1996
Denn 1994
Aus 1993
tischen 1992
regulation 1991
markets 1990
Lu@@ 1989
gemeinsamen 1989
besch@@ 1988
vo@@ 1984
currently 1981
Berlin 1979
notwendig 1978
passiert 1977
verwendet 1977
Herren 1976
democratic 1975
Grundlage 1972
stop 1972
ad 1971
culture 1971
quickly 1971
legen 1970
ms 1970
Dann 1969
Vertrag 1969
Ihrem 1968
anything 1968
everyone 1968
Neu@@ 1967
build 1967
voted 1966
Wort 1965
doesn 1965
soon 1965
wohl 1960
gesch@@ 1959
kl@@ 1959
certainly 1958
consider 1957
directly 1954
places 1954
No@@ 1953
huge 1953
lässt 1953
Bau@@ 1952
sch 1952
N 1951
Wasser@@ 1951
success 1951
eller 1950
game 1950
br@@ 1949
designed 1947
geb@@ 1947
network 1947
1@@ 1946
wa@@ 1946
Vorschläge 1943
ari@@ 1943
contact 1942
hei@@ 1940
ideas 1940
chten 1939
Nach@@ 1938
internal 1934
solutions 1934
Vor 1930
beispielsweise 1930
Debatte 1928
allerdings 1927
ändern 1927
knowledge 1926
gerne 1925
mu@@ 1925
provides 1921
entire 1918
media 1914
Russia 1912
meet 1912
front 1911
impact 1910
liegen 1910
entwickeln 1909
November 1907
lernen 1907
ss@@ 1907
Kontrolle 1906
min@@ 1905
reasons 1904
Ber@@ 1903
address 1902
Ergebnis 1901
Dollar 1900
Vereinigten 1899
etc 1898
improve 1898
lose 1898
ieren 1896
add 1894
ets 1890
Anwendung 1889
ling 1889
writing 1889
send 1888
event 1885
states 1885
verbunden 1885
six 1884
tive 1884
gleich 1883
video 1882
parties 1881
Aufgabe 1880
decided 1880
shows 1879
ben@@ 1878
station 1878
unseres 1877
Israel 1872
beginning 1872
word 1872
efforts 1870
lei@@ 1870
Ad@@ 1868
gemeinsame 1868
bringt 1867
events 1867
Energie 1866
Design 1864
Entscheidung 1863
tung 1863
ell@@ 1862
held 1862
tet 1860
learn 1858
Damen 1857
foreign 1857
av@@ 1856
context 1856
1999 1855
Rück@@ 1852
Why 1852
einzelnen 1852
workers 1851
Zum 1850
implementation 1849
tische 1849
20@@ 1846
IT 1846
Stunden 1846
zeit 1846
Beziehungen 1843
ass@@ 1843
please 1843
einge@@ 1842
gemeinsam 1842
Ko@@ 1841
Forschung 1838
links 1838
happened 1837
ebenso 1836
ourselves 1836
perhaps 1836
reach 1836
0 1834
Warum 1834
road 1833
hal@@ 1832
Qu@@ 1831
bevor 1830
Nähe 1828
ste@@ 1826
aware 1825
ideal 1825
Sprache 1824
Natur 1823
ver 1823
ah@@ 1822
weltweit 1822
Durch 1818
active 1818
ta 1817
Regionen 1815
decisions 1815
April 1814
Berichterstatter 1814
anzu@@ 1814
cher 1814
negotiations 1812
lu@@ 1809
danken 1808
gesamten 1808
Erfolg 1807
From 1807
Hinblick 1807
Woche 1806
ana 1805
majority 1805
neu 1805
Meine 1804
Presidency 1804
jobs 1804
glauben 1803
Familie 1802
http 1802
dr@@ 1801
unternehmen 1799
else 1798
» 1798
lead 1797
ment 1797
90 1796
ations@@ 1796
Hand 1795
reform 1795
1.@@ 1794
ziemlich 1794
bed 1793
regional 1793
Su@@ 1792
date 1792
focus 1790
völlig 1790
Man@@ 1788
fer 1786
requirements 1786
fahren 1785
happen 1785
Restaurant 1784
geführt 1784
Ent@@ 1783
verwenden 1782
va 1781
basic 1780
gleichzeitig 1780
ks 1780
ity 1779
genug 1777
oil 1777
table 1777
central 1775
fest 1775
seems 1772
standard 1772
un 1772
Bevölkerung 1771
fight 1771
treffen 1771
ender 1768
Sh@@ 1765
board 1764
har@@ 1764
significant 1763
appropriate 1761
bleibt 1761
thus 1761
study 1760
Menge 1759
behind 1756
rates 1756
Platz 1755
soziale 1755
accept 1754
teilen 1754
$ 1753
image 1753
sound 1753
ster@@ 1753
Lebens@@ 1752
cken 1752
program 1752
ties 1752
ance 1750
anders 1750
initiative 1748
versch@@ 1748
Gesundheit 1747
heard 1747
Verbindung 1745
fi@@ 1745
70 1744
Bi@@ 1744
ermöglicht 1744
fin@@ 1743
center 1741
told 1741
chte 1740
mentioned 1740
near 1740
San 1739
Verhandlungen 1738
according 1738
dar 1737
wichtigen 1737
child 1736
Wirtschafts@@ 1735
sion 1734
17@@ 1733
Tri@@ 1733
tu@@ 1733
Du 1732
V 1732
funds 1731
London 1730
prices 1730
Liste 1729
By 1728
She 1728
obwohl 1728
Bank 1726
ed@@ 1726
we@@ 1726
although 1725
co 1725
lichkeit 1725
La 1724
ents 1723
speak 1723
kte 1722
values 1722
Geschäfts@@ 1721
eigene 1721
nimmt 1718
Umwelt@@ 1717
size 1717
communication 1716
dy 1716
fallen 1716
ders 1714
throughout 1714
tig 1714
‘ 1714
Ausdruck 1713
Kultur 1713
Änderungsanträge 1713
anderer 1711
code 1711
ges@@ 1711
procedure 1711
á@@ 1711
Macht 1710
hören 1709
French 1708
potential 1708
request 1707
é 1707
Zu 1706
H 1705
choice 1705
military 1704
€ 1704
practice 1703
Programme 1701
final 1701
rest 1701
Ri@@ 1700
Abkommen 1699
fe@@ 1699
science 1699
ll 1697
wor@@ 1697
hätten 1696
alt 1695
instead 1695
Sicherheits@@ 1693
ps 1693
wahrscheinlich 1693
Änderungsantrag 1693
Bereichen 1691
gung 1691
Krise 1690
einzige 1690
out@@ 1690
Version 1689
gra@@ 1689
walk 1689
Anfang 1687
Do@@ 1687
France 1687
erforderlich 1687
investment 1687
Ho@@ 1685
Mann 1685
indeed 1685
Jahres 1684
leave 1684
develop 1683
… 1682
complex 1681
Blick 1680
To@@ 1680
Iran 1678
ard 1678
wrong 1678
.. 1677
Dis@@ 1677
suchen 1677
weiteren 1677
bare 1674
Jetzt 1672
lage 1672
tax 1672
einzu@@ 1671
Verordnung 1670
tt@@ 1670
Information 1668
connection 1668
isches 1668
Cor@@ 1667
meines 1667
traditional 1667
famous 1666
au 1665
rec@@ 1665
recently 1665
lin@@ 1664
eher 1663
AG 1662
direct 1662
relations 1662
committee 1661
hand@@ 1661
Mit@@ 1659
Preis 1659
concerns 1659
Kolleginnen 1657
head 1657
unique 1657
visit 1656
Mitglieder 1654
getan 1653
Please 1650
U 1650
capital 1649
tion@@ 1649
Park 1648
weiter@@ 1648
bauen 1646
tiert 1646
English 1644
ful 1644
fo@@ 1642
Gr@@ 1640
internationale 1640
South 1638
gn@@ 1638
Außerdem 1634
stri@@ 1633
weg 1633
lan@@ 1631
Ausschuss 1629
str@@ 1629
kennen 1628
Tra@@ 1627
receive 1627
stre@@ 1627
Com@@ 1626
Ja 1626
Me@@ 1626
changed 1626
Tage 1625
perfect 1625
ation@@ 1623
inside 1621
our@@ 1621
picture 1620
Dienstleistungen 1619
ast@@ 1618
sage 1617
happy 1616
tel@@ 1616
wichtigsten 1616
existing 1615
ori@@ 1614
gives 1613
guten 1613
gas 1612
19 1611
Ergebnisse 1611
funktioniert 1610
scheint 1610
15@@ 1609
Windows 1609
brought 1609
oben 1609
Some 1608
befinden 1608
gs 1608
original 1608
ang 1607
nuclear 1607
rich 1606
Bilder 1605
Turkey 1603
Vi@@ 1603
treatment 1603
zweite 1603
giving 1602
programmes 1599
EN 1598
aufge@@ 1597
concerning 1596
Gra@@ 1595
Prozess 1595
apply 1595
Gen@@ 1594
il 1594
additional 1593
gr@@ 1592
guarantee 1592
party 1592
became 1591
Zahl 1590
Erfahrung 1589
IN@@ 1587
ven@@ 1587
card 1586
erkennen 1586
10@@ 1585
ats 1585
included 1584
verbessern 1584
friends 1583
großer 1583
Government 1582
stra@@ 1581
Minister 1580
ground 1580
enz@@ 1579
Bu@@ 1576
Zeitpunkt 1576
jemand 1575
performance 1574
eu@@ 1573
form@@ 1573
kids 1573
remain 1571
tieren 1571
Abgeordneten 1570
Türkei 1570
falls 1570
Paris 1569
amp@@ 1569
Sa@@ 1568
Zentrum 1568
enten 1567
governments 1567
dung 1566
Damit 1564
Ausschusses 1563
East 1563
stark 1563
Kar@@ 1562
Pi@@ 1562
Welt@@ 1562
ence 1562
finally 1562
Japan 1561
cks 1561
gestimmt 1561
iert 1561
structure 1559
Gelegenheit 1558
benefit 1558
guests 1558
sometimes 1558
AR@@ 1555
baren 1555
leading 1555
scher 1555
Förderung 1554
agreements 1554
response 1554
Musik 1553
levels 1553
16@@ 1552
Computer 1552
ying 1551
La@@ 1550
gende 1549
ys 1549
movement 1548
sustainable 1548
Beitrag 1547
Regierungen 1547
Rei@@ 1547
allows 1547
creating 1545
file 1545
ry 1544
saw 1543
ente 1541
zer@@ 1541
ving 1540
27 1539
fördern 1539
Anzahl 1538
Milliarden 1538
innen 1537
Lösungen 1535
follow 1535
successful 1535
Spiel 1534
maybe 1534
versucht 1534
dar@@ 1533
facilities 1533
restaurant 1533
objectives 1532
Of 1531
Wei@@ 1531
forms 1531
worked 1531
bestimmte 1529
lack 1529
office 1529
demand 1528
22 1527
Moment 1527
ship 1527
« 1527
Br@@ 1526
Court 1524
Sozial@@ 1524
Verbesserung 1524
Wissen 1524
myself 1524
Behörden 1523
National 1523
function 1523
Entschließung 1522
comm@@ 1522
ven 1522
Partner 1521
agricultural 1521
El@@ 1520
GmbH 1520
Umwelt 1519
gesamte 1519
bes@@ 1518
fair 1518
exactly 1517
lt 1517
matters 1517
India 1516
higher 1515
ments 1515
death 1514
users 1514
integration 1513
des@@ 1512
hoch 1512
So@@ 1511
21 1510
Gewalt 1510
happens 1510
keyword 1508
tan@@ 1508
whose 1508
Unser 1507
bestimmten 1507
eg@@ 1506
12@@ 1504
Einsatz 1503
achieved 1503
anderes 1503
web 1501
animals 1500
Umgebung 1499
check 1496
dialogue 1495
hinsichtlich 1495
Team 1494
braucht 1494
Organisation 1493
Per@@ 1492
reality 1492
überhaupt 1492
Ideen 1491
press 1490
tor 1490
ann@@ 1488
enn@@ 1488
ore 1488
received 1488
OK 1487
pressure 1487
ek@@ 1486
remember 1486
bl@@ 1485
id 1485
situated 1484
derzeit 1483
kten 1482
tete 1482
Y 1481
ermöglichen 1481
shown 1481
TED 1480
objective 1478
Erweiterung 1477
bestehen 1476
Während 1475
ton 1475
tur@@ 1475
00@@ 1474
principles 1474
DE 1472
enter 1472
Text 1471
det 1471
partners 1471
materials 1470
met 1470
größten 1469
kurz 1469
Lassen 1468
ators 1468
news 1468
Entscheidungen 1467
pool 1467
Ne@@ 1466
aufzu@@ 1466
Landes 1465
sechs 1465
Web 1464
lines 1464
reviewer 1464
violence 1464
Mor@@ 1463
cause 1463
protect 1463
wobei 1463
ies 1462
Bildung 1460
II 1459
Pa@@ 1459
closed 1457
UN 1456
message 1456
schwer 1456
sorgen 1455
students 1455
First 1454
balance 1454
land@@ 1454
Land@@ 1453
Lisbon 1453
Pre@@ 1453
king 1453
Verbraucher 1452
euro 1452
pp@@ 1452
established 1451
Afrika 1450
concern 1450
growing 1449
af@@ 1448
enthalten 1448
gel 1448
tro@@ 1448
Aufmerksamkeit 1447
www.@@ 1446
lau@@ 1445
below 1444
gefunden 1444
member 1444
Kampf 1443
Ru@@ 1443
scale 1443
AN@@ 1441
direction 1441
lösen 1441
mail 1441
ales 1440
Seit 1439
ino 1439
sed 1439
verfügt 1439
300 1438
els 1438
2.@@ 1436
Wert 1435
activity 1435
essen 1435
,000 1434
Kind 1434
cht@@ 1434
geworden 1433
note 1433
schließlich 1433
Erde 1432
Regeln 1432
film 1432
heraus 1432
Nutzung 1431
mehrere 1431
Markt@@ 1430
ssen 1430
commitment 1429
capacity 1428
fish 1428
prevent 1428
professional 1428
Au@@ 1427
interested 1427
Russland 1425
relevant 1424
angenommen 1422
poor 1422
tz@@ 1422
beach 1421
ces 1421
series 1419
Kraft 1418
return 1418
je@@ 1417
stuff 1417
People 1416
größte 1416
Initiative 1415
Is 1415
produce 1415
amendment 1414
Ban@@ 1413
Grenzen 1412
opportunities 1412
zei@@ 1412
23 1411
Schaffung 1411
sur@@ 1411
uses 1411
wirtschaftliche 1411
cut 1410
Wahl 1409
aim 1409
creation 1409
hen 1409
treten 1409
agreed 1408
promote 1407
Themen 1406
lesen 1406
reden 1406
effects 1405
machine 1404
weeks 1404
zed 1404
Okay 1403
carried 1403
consumers 1403
lung 1403
net 1402
best@@ 1401
Hause 1400
ages 1400
poverty 1400
reports 1400
Augen 1399
genden 1399
regarding 1399
letzte 1398
technologies 1398
EN@@ 1397
ER@@ 1397
halte 1397
Do 1396
Notwendigkeit 1396
cities 1396
hear 1396
star 1396
35 1395
customer 1395
Finally 1394
comfortable 1394
sis 1394
zehn 1394
Hand@@ 1393
possibility 1393
app@@ 1392
neben 1392
ut 1392
Affairs 1391
aspects 1391
looks 1391
God 1390
hoch@@ 1390
ß 1390
euch 1389
abzu@@ 1388
includes 1388
pri@@ 1388
choose 1387
dachte 1387
Hoch@@ 1386
highly 1386
similar 1386
May 1385
Interessen 1384
enthält 1384
features 1384
Stelle 1383
goods 1383
instrument 1383
lagen 1382
lost 1382
speed 1382
ba@@ 1381
comp@@ 1381
nennen 1381
source 1381
ality 1380
sions 1380
tiger 1380
ären 1380
Google 1379
ble 1379
frei 1379
Bitte 1378
Wachstum 1378
rule 1378
prepared 1377
unten 1377
reduce 1376
Änderungen 1376
Since 1375
beginnen 1375
City 1374
ess 1373
normal 1373
weisen 1372
Freiheit 1371
Heute 1371
travel 1371
Monaten 1370
ics 1370
z.B. 1369
equipment 1368
produced 1368
äußerst 1367
Then 1366
civil 1366
schaft 1366
types 1366
presented 1365
enable 1364
gewesen 1364
ER 1363
contains 1363
hinter 1363
For@@ 1362
benutzen 1362
fest@@ 1362
leisten 1362
solchen 1362
Wochen 1361
überall 1361
dadurch 1359
increased 1359
safe 1359
cor@@ 1358
breakfast 1357
leicht 1357
pretty 1357
someone 1357
ständig 1356
allein 1355
ski 1355
supply 1355
weder 1354
systeme 1353
Bel@@ 1352
wichtiger 1352
Herzen 1351
Kindern 1351
ther@@ 1351
starting 1349
Punkte 1348
added 1348
increasing 1348
bisher 1347
challenge 1347
und@@ 1347
Fortschritte 1345
reading 1345
rund 1345
park 1343
piece 1343
Verwendung 1342
package 1342
Fahr@@ 1341
ess@@ 1340
tools 1340
bus 1339
status 1338
zweiten 1338
ade 1337
begann 1337
tungen 1337
Mehrheit 1336
Q@@ 1336
berg 1336
Arten 1334
ST@@ 1334
gave 1334
thanks 1334
Go@@ 1333
Vielen 1333
kannst 1333
sel@@ 1333
teten 1333
Jahrhundert 1332
erinnern 1331
funding 1331
gleiche 1331
schreiben 1331
bri@@ 1330
consumer 1330
industrial 1330
än@@ 1330
Lissabon 1329
aufgenommen 1329
sah 1328
sent 1328
Industrie 1327
&#91; 1326
Bei@@ 1326
leider 1326
ban@@ 1325
erungen 1325
&#93; 1324
Gebäude 1324
ub@@ 1324
British 1323
Tat 1322
hohen 1322
friendly 1321
phone 1321
exchange 1320
kan@@ 1320
fre@@ 1319
Position 1318
profiles 1317
Körper 1316
double 1314
bewusst 1313
species 1313
thousands 1313
won 1313
Mc@@ 1312
fordern 1312
innovation 1312
Afghanistan 1311
ier@@ 1311
pf@@ 1311
Central 1310
Nur 1309
considered 1309
yourself 1309
Gefahr 1308
Not 1308
sive 1308
written 1308
mat@@ 1307
previous 1307
draw 1306
hold 1306
ler@@ 1306
dollars 1305
nice 1305
Einzel@@ 1304
PC 1304
Nicht 1303
categories 1303
ready 1303
teile 1303
beyond 1302
ese 1302
por@@ 1302
commercial 1301
lediglich 1301
sto@@ 1301
Gehirn 1299
North 1299
partner 1299
sing 1299
alone 1298
powerful 1298
ren@@ 1298
schließen 1298
tungs@@ 1297
Article 1296
Mi@@ 1296
green 1296
self 1296
14@@ 1295
allowed 1295
efficient 1295
gew@@ 1294
relation 1294
the@@ 1294
Fach@@ 1293
actions 1293
floor 1293
sta@@ 1293
border 1292
chance 1292
purpose 1292
Handels@@ 1291
Darüber 1290
Sinne 1290
gehören 1289
wonderful 1289
Einführung 1288
June 1288
erster 1288
Today 1287
bre@@ 1287
gewährleisten 1287
absolutely 1285
box 1285
verfahren 1285
.000 1284
Western 1284
looked 1284
san@@ 1284
zunächst 1284
Krieg 1283
Viele 1283
West 1283
digital 1283
August 1281
Fehler 1281
Frankreich 1281
Groß@@ 1281
Kinder@@ 1281
Kosovo 1281
Linie 1280
fu@@ 1280
Landwirtschaft 1279
Spiel@@ 1279
begin 1279
concept 1279
mittel 1279
Selbst@@ 1278
largest 1278
reached 1278
summer 1278
Italy 1277
Steuer@@ 1277
cr@@ 1277
innovative 1277
class 1276
Bekämpfung 1275
limited 1275
Therefore 1274
ihres 1274
mor@@ 1274
Kunst 1273
providing 1273
Gesundheits@@ 1272
discussion 1272
ini@@ 1272
Convention 1271
effort 1271
setting 1271
gets 1270
Nor@@ 1269
Ser@@ 1269
wider@@ 1269
equal 1268
vel@@ 1268
Erklärung 1267
Handel 1267
diejenigen 1267
style 1267
AS@@ 1266
He@@ 1266
star@@ 1266
Oh 1265
setzt 1265
somit 1265
wieder@@ 1265
Barcelona 1264
charge 1263
schriftlich 1263
ously 1262
weise 1262
task 1261
popular 1259
Dialog 1256
regulations 1256
wing 1256
Firma 1255
morning 1255
mp@@ 1254
AL@@ 1253
Ist 1253
Schule 1253
ants 1253
bank 1253
Du@@ 1252
verfügen 1252
General 1251
aler 1251
enlargement 1251
ili@@ 1251
sofort 1251
vergessen 1250
welches 1250
ase 1249
wert 1249
rise 1248
Bar 1247
chen@@ 1247
erwarten 1247
Ra@@ 1246
1,@@ 1245
tors 1245
applications 1244
beste 1244
eben 1244
joint 1244
met@@ 1244
difference 1243
Mai 1242
paid 1242
scientific 1242
Natürlich 1241
conference 1241
former 1241
tel 1241
tliche 1241
Earth 1240
Indien 1240
late 1240
Dabei 1239
Ukraine 1238
expect 1238
property 1238
stellte 1238
atmosphere 1237
tem 1237
IC@@ 1236
began 1236
images 1236
ßen 1236
Standpunkt 1235
paper 1235
Museum 1234
remains 1233
War@@ 1231
fand 1231
priority 1230
Produktion 1228
Schul@@ 1228
außerdem 1228
gesetzt 1228
morgen 1228
Sal@@ 1227
Technologien 1227
ably 1227
richtige 1227
planet 1226
zumindest 1226
Jo@@ 1225
extra 1225
search 1224
disease 1223
easily 1223
sitting 1223
sor@@ 1223
Gründen 1222
endlich 1221
forces 1221
ki@@ 1221
moving 1221
Booking.com 1220
Chinese 1220
bel 1220
hohe 1220
holiday 1220
ism 1220
kt@@ 1220
trans@@ 1220
CO@@ 1219
Sicht 1219
Vorschriften 1219
born 1219
instruments 1218
Party 1216
fl@@ 1216
gro@@ 1216
steps 1216
Angebot 1215
alte 1215
bessere 1215
lin 1215
Film 1214
ak 1213
eng@@ 1213
independent 1213
Flug@@ 1212
W 1212
gleich@@ 1212
neuer 1212
13@@ 1211
Integration 1211
animal 1211
are@@ 1211
statement 1211
kinds 1210
relationship 1210
running 1210
Gruppen 1209
fr@@ 1209
medi@@ 1209
spend 1209
Spain 1208
fine 1208
gezeigt 1207
hands 1207
ktion 1207
neues 1207
supported 1207
Licht 1206
bau@@ 1206
bilden 1206
colleagues 1206
conflict 1206
super@@ 1206
Diskussion 1205
Monate 1205
ast 1205
challenges 1205
map 1205
einschließlich 1204
nor 1204
Mitarbeiter 1203
Preise 1203
bezüglich 1203
external 1203
öffentliche 1203
45 1202
Männer 1202
ass 1202
drive 1202
organisation 1202
sches 1202
useful 1202
Tr@@ 1201
gre@@ 1201
Dr. 1200
Ta@@ 1200
vergangenen 1200
ür@@ 1200
aren 1199
danke 1199
inn@@ 1199
beide 1198
laufen 1198
ls 1198
option 1198
Einige 1196
Aktivitäten 1195
stability 1195
tation 1195
Meer 1194
couple 1194
gh@@ 1194
consequences 1193
kre@@ 1193
Funktion 1192
compromise 1192
möglichkeiten 1192
ness 1192
benefits 1191
learning 1191
Mitglied 1190
deine 1190
durchgeführt 1190
generation 1190
immediately 1190
Beschäftigung 1189
Juni 1189
Kur@@ 1189
Ressourcen 1189
Wel@@ 1189
tlich 1189
alternative 1188
gekommen 1188
Erachtens 1187
Mein 1187
Wer 1187
ort 1187
pleased 1187
Tagen 1186
understanding 1186
ant@@ 1185
bewegen 1185
tomorrow 1185
contribution 1184
credit 1184
equipped 1184
ines 1184
wären 1184
Wahl@@ 1183
can@@ 1183
damage 1183
hr@@ 1183
ungefähr 1183
Armut 1182
Ansatz 1181
ES@@ 1180
express 1180
waste 1180
zwei@@ 1180
1998 1179
December 1179
Gott 1179
äre 1179
Am@@ 1178
Mal@@ 1178
mobile 1178
nächste 1178
rechts 1178
WTO 1177
basically 1177
latest 1177
stell@@ 1177
Lei@@ 1175
fishing 1175
Auto 1174
assen 1174
geschlossen 1174
Druck 1173
Kommissarin 1173
Dezember 1172
Gar@@ 1171
lies 1171
tool 1171
Folgen 1170
Kor@@ 1170
hält 1170
Projekte 1169
ley 1169
Behandlung 1168
Many 1168
month 1168
village 1168
January 1167
Video 1167
dre@@ 1167
happening 1167
illegal 1167
sm@@ 1167
Nein 1166
Vielleicht 1166
iz@@ 1166
Öffentlichkeit 1166
Bereiche 1165
fil@@ 1165
gest@@ 1165
Beginn 1164
gemäß 1164
elements 1163
href 1163
legislative 1163
sieren 1162
spent 1162
Fällen 1161
Lin@@ 1161
RE@@ 1161
Schlusselwortern 1161
sites 1161
Mail 1160
enti@@ 1160
Ur@@ 1159
erklärt 1159
Amsterdam 1158
musste 1158
www.ted.com 1158
cancer 1157
cells 1157
cu@@ 1157
folgen 1157
leaders 1157
mann 1157
ment@@ 1157
stelle 1157
verändern 1157
Portugal 1156
Your 1156
ack@@ 1156
details 1156
pres@@ 1156
Sk@@ 1155
maßnahmen 1155
plant 1155
Just 1154
heit 1154
à 1154
buy 1153
entscheiden 1153
kosten 1153
link 1153
schützen 1153
sei@@ 1153
Buch 1152
base 1152
sting 1152
operation 1151
reviews 1151
Gefühl 1150
Har@@ 1150
Investitionen 1150
frage 1150
führung 1150
internet 1150
construction 1149
gender 1149
voll@@ 1149
win@@ 1149
í@@ 1149
Even 1148
University 1148
benötigen 1148
distribution 1148
wenige 1148
angesichts 1147
nachdem 1147
pass 1147
Wettbewerb 1146
beitragen 1146
elections 1146
schaften 1146
transparency 1146
Gemeinschafts@@ 1145
wählen 1145
Bestimmungen 1143
John 1143
Vergangenheit 1143
criteria 1143
werk 1143
insgesamt 1142
manchmal 1142
Auffassung 1141
ehr@@ 1141
IS@@ 1140
Zusammen@@ 1140
assistance 1140
gend 1140
ill@@ 1140
siert 1140
wo@@ 1140
Systems 1138
agenda 1138
ano 1138
erk@@ 1138
Nationen 1137
files 1137
verantwortlich 1137
Sinn 1136
Transparenz 1136
ani@@ 1136
gesprochen 1136
genannt 1135
ner@@ 1135
Patienten 1134
cal 1134
woman 1134
IT@@ 1133
eri@@ 1133
farmers 1133
sub 1133
Mediterranean 1132
Republic 1132
ör@@ 1132
Höhe 1131
bald 1131
leg@@ 1131
Modell 1130
eingesetzt 1130
raum 1130
Auswahl 1129
Mutter 1129
Tur@@ 1129
behandelt 1129
benutzt 1129
AT@@ 1128
gten 1128
street 1128
elt 1127
gl@@ 1127
operating 1126
stimmen 1126
voting 1126
hotels 1125
Lebens 1123
schauen 1123
Sub@@ 1122
dri@@ 1122
flo@@ 1122
practical 1122
reichen 1122
ve@@ 1122
Erfahrungen 1121
ev@@ 1121
terrorism 1121
tics 1121
Ku@@ 1120
bin@@ 1120
30@@ 1119
Grunde 1119
Stellen 1119
ars 1119
außerhalb 1119
carry 1119
fa@@ 1118
Bur@@ 1117
alität 1117
stress 1116
Besch@@ 1115
amerikanischen 1115
lower 1115
item 1114
Danke 1113
Zweitens 1113
arbeitet 1113
mü@@ 1113
seem 1113
ße 1113
Da@@ 1112
ff 1112
Staats@@ 1111
Anforderungen 1110
Konferenz 1110
geschaffen 1110
negative 1110
ns 1110
justice 1109
medical 1109
genießen 1108
regards 1108
{ 1108
imagine 1107
prä@@ 1107
tim@@ 1107
Werte 1106
tried 1106
28 1105
Sen@@ 1105
tsch@@ 1105
Pal@@ 1104
provisions 1104
Präsidenten 1103
fühlen 1103
ir 1103
mel@@ 1103
require 1103
solidarity 1103
Stimme 1102
avoid 1102
ical 1102
menschlichen 1102
Management 1101
del@@ 1101
translator 1101
ational 1100
families 1100
figure 1100
measure 1100
ology 1100
worth 1100
Por@@ 1099
ce@@ 1099
crucial 1098
deten 1098
europäischer 1098
labour 1098
raised 1098
ün@@ 1098
Online 1097
See 1097
document 1097
na 1097
processes 1097
verhindern 1097
March 1096
era 1096
medium 1096
AC@@ 1095
Berichts 1095
Luft@@ 1095
dan@@ 1094
liebe 1094
vol@@ 1094
zahlen 1094
Im@@ 1093
Italian 1093
groß 1093
ide@@ 1093
likely 1093
published 1093
trotz 1093
average 1092
erfolgreich 1092
sal@@ 1092
Rights 1091
clean 1091
ig 1091
UN@@ 1090
amazing 1090
analysis 1090
seven 1090
B. 1089
col@@ 1088
goal 1088
bur@@ 1087
fra@@ 1087
legt 1087
machte 1087
spricht 1087
applied 1086
ga@@ 1086
gte 1086
procedures 1086
round 1086
Änderung 1086
everybody 1085
games 1085
critical 1084
integrated 1084
white 1084
zahlreiche 1084
neu@@ 1083
rei@@ 1083
CD 1082
LE@@ 1082
nahe 1082
plants 1082
Development 1081
barkeit 1080
Vertrauen 1079
employees 1079
Ha@@ 1078
Januar 1078
Wissenschaft 1078
middle 1078
minute 1078
volle 1078
Daten@@ 1077
voller 1077
erklären 1076
Energie@@ 1075
Informations@@ 1075
modified 1075
folgt 1073
ice 1073
mag 1073
wants 1073
David 1072
Gi@@ 1072
server 1072
atory 1071
emp@@ 1071
monitoring 1071
Ba@@ 1070
Euro@@ 1070
ke@@ 1070
zone 1070
Spanish 1068
section 1068
October 1067
genutzt 1067
Frieden 1066
ismus 1066
playing 1066
requires 1066
efficiency 1064
75 1063
Erstens 1063
Schwierigkeiten 1063
West@@ 1063
äu@@ 1063
Ben@@ 1062
Site 1062
highest 1062
gelten 1061
draft 1060
enz 1060
Straße 1059
erlaubt 1058
establish 1058
mm 1058
Chance 1057
Dar@@ 1057
Innovation 1057
Wohn@@ 1057
chs 1057
fahr@@ 1057
Planeten 1056
tend 1056
reduction 1055
stands 1055
fun 1054
heutigen 1053
kaufen 1053
ws 1053
} 1053
ends 1052
ged 1052
möglichen 1052
ron@@ 1052
Karte 1051
betrachten 1051
sektor 1051
write 1051
Business 1050
Fre@@ 1050
Ti@@ 1050
plans 1050
vision 1050
29 1049
Bemühungen 1049
Insel 1049
Te@@ 1049
az@@ 1049
island 1049
review 1049
testen 1049
train 1049
ES 1048
bitten 1048
ca@@ 1048
dich 1048
hor@@ 1048
26 1047
Medien 1047
begrüße 1047
sierung 1047
tor@@ 1047
Ger@@ 1046
bisschen 1045
calls 1045
despite 1045
surface 1045
Bal@@ 1044
bau 1044
changing 1044
hour 1044
motion 1044
Aspekte 1043
Center 1043
Kan@@ 1043
erneut 1043
erzählen 1043
heraus@@ 1043
mention 1043
post 1043
schwierig 1043
stellung 1043
variety 1043
Bürgern 1042
cover 1042
sports 1042
verändert 1042
ction 1041
log@@ 1041
numbers 1041
Leuten 1040
anti@@ 1040
documents 1040
exist 1040
gan@@ 1040
powers 1040
zuvor 1040
Anfrage 1039
Präsidentschaft 1039
hol@@ 1039
turned 1039
win 1038
Gäste 1037
Organisationen 1037
decide 1037
Reform 1036
Si@@ 1036
Web@@ 1036
businesses 1036
einander 1036
gebaut 1035
häufig 1035
Linux 1034
globalen 1034
languages 1034
ue 1033
23@@ 1032
ach 1032
überzeugt 1032
Den 1031
Opfer 1031
ligen 1031
stories 1031
Angst 1030
ok@@ 1030
Tagesordnung 1029
bul@@ 1029
freien 1029
guest 1029
wollten 1029
damals 1028
save 1028
seeing 1028
July 1027
400 1026
bestimmt 1026
daily 1026
größere 1026
tten 1026
Basis 1025
Herausforderungen 1025
annual 1025
distance 1025
länder 1025
miteinander 1025
tt 1025
3.@@ 1024
Hu@@ 1024
of@@ 1024
erungs@@ 1023
reference 1023
1. 1022
Fu@@ 1022
anyone 1021
books 1021
gar@@ 1021
multi@@ 1021
ingly 1020
voice 1020
Tier@@ 1019
accommodation 1019
bodies 1019
vollständig 1019
pen@@ 1018
Mittel@@ 1017
Teile 1017
lat@@ 1017
Bio@@ 1016
caused 1016
fore@@ 1016
Entwicklungs@@ 1015
Hinsicht 1015
Instrument 1015
Ste@@ 1015
ette 1015
loss 1015
submitted 1015
learned 1014
len@@ 1014
organisations 1014
ser 1014
yer 1014
25@@ 1013
März 1013
Rechtsvorschriften 1013
becomes 1013
income 1013
scope 1013
sectors 1013
zer 1013
aktiv 1012
official 1012
ero@@ 1011
implemented 1011
van 1011
Hei@@ 1010
alism 1009
mal@@ 1009
0.@@ 1008
Amendment 1007
Finanzierung 1007
Forschungs@@ 1007
acht 1007
congratulate 1007
lots 1007
platz 1007
seines 1007
Gegen@@ 1006
anderem 1006
apartment 1006
cre@@ 1006
ften 1006
erwartet 1005
payment 1005
wine 1005
black 1004
gabe 1004
minimum 1004
Italien 1003
aktuellen 1003
asking 1003
Bürgerinnen 1002
Kopf 1002
friend 1002
sol@@ 1002
4.@@ 1001
Herausforderung 1001
Kunst@@ 1001
Oktober 1001
Wunsch 1001
assi@@ 1001
historic 1001
lic@@ 1001
mission 1001
Natur@@ 1000
Services 1000
ash@@ 1000
berücksichtigt 1000
crime 1000
dete 1000
gewinnen 1000
historical 1000
parents 1000
EC@@ 999
blo@@ 999
laws 999
lige 999
Produkt 998
Sport@@ 998
Tiere 998
fear 998
Einfluss 997
att@@ 997
lich@@ 997
Ac@@ 996
warten 996
advantage 995
listen 995
micro@@ 995
Mädchen 994
connected 994
Osten 993
Server 993
getroffen 993
influence 993
kaum 993
mm@@ 993
secure 993
fort@@ 992
felt 991
kraft 991
pr@@ 991
demokratischen 990
ear@@ 990
ppe 990
tru@@ 990
Republik 989
affected 989
extent 989
Angelegenheit 988
absolut 988
San@@ 987
join 987
walking 987
zing 987
accepted 986
cross 986
entschieden 986
separate 986
verkehr 986
Angelegenheiten 985
Aufgaben 985
Fähigkeit 985
dir 985
guy 985
ulation 985
Comm@@ 984
Fi@@ 984
Ireland 984
besondere 984
doubt 984
method 984
sagten 984
sonst 984
Office 983
Schritte 983
j 983
übernehmen 983
Fund 982
Iraq 982
cker 982
fied 982
genannten 982
niemand 982
screen 982
1997 981
32 981
Annahme 981
Furthermore 980
arbeit 980
trust 980
whatever 980
Oder 979
cur@@ 979
ef@@ 979
richten 979
stat@@ 979
borders 978
iger 978
speaking 978
Konzept 977
becoming 977
geschrieben 977
qui@@ 977
tät 977
wenden 977
Familien 976
ss 976
Folge 975
Praxis 975
Systeme 975
accession 975
evidence 975
nt 975
sion@@ 975
Freunde 974
Gedanken 974
St. 974
eins 974
ju@@ 974
modernen 974
mother 974
uni@@ 974
Sol@@ 973
beginnt 973
cars 973
erenden 973
rein@@ 973
tionen 973
vertreten 973
OS 972
Secondly 972
industrie 972
stu@@ 972
Ca@@ 971
Wann 971
agriculture 971
deep 971
gang 971
handeln 971
opening 971
Ki@@ 970
ga 970
usually 970
vollen 970
Arbeitsplätze 969
Fe@@ 969
acc@@ 969
break 969
entsprechend 969
ich@@ 969
­ 969
Ju@@ 968
Staat 968
ren 967
vers@@ 967
Villa 966
außer 966
click 966
vorstellen 966
Eltern 965
Falls 965
Jeder 965
Zur 965
conclusion 965
daraus 965
darstellt 965
fields 965
persons 965
Atmosphäre 964
Mat@@ 964
technischen 964
IM@@ 963
Inhalt 963
Mu@@ 963
War 963
danach 963
Bewegung 962
ausgestattet 962
camera 961
ckt 961
5.@@ 960
Bri@@ 960
ack 960
geschieht 960
igkeit 959
tin 959
Küche 958
Wahlen 958
gone 958
ish 958
physical 958
ro 958
unbedingt 958
vorgeschlagen 958
1996 957
Can 957
door 957
ll@@ 957
buildings 956
genauso 956
maximum 956
relating 956
victims 956
Vielfalt 955
emissions 955
erleben 955
lands 955
options 955
While 954
abge@@ 954
na@@ 954
31 953
High 953
Mitte 953
Nr. 953
cher@@ 953
digen 953
eindeutig 953
eyes 953
nahme 953
richtigen 953
whom 953
Terrorismus 952
Worte 952
jene 952
implement 951
offen 951
pat@@ 951
pu@@ 951
tut 951
circumstances 950
ey 950
ien 950
liber@@ 950
maintain 950
Tre@@ 949
bra@@ 949
erwähnt 949
hervor@@ 949
obviously 949
traffic 949
Although 948
entsprechenden 948
erfüllen 948
Directive 947
Liebe 947
regime 947
Berichterstatterin 946
Unter 946
expressed 946
off@@ 946
zation 946
99 945
Spanien 945
Wieder@@ 945
methods 944
police 944
zug 944
FR 943
infrastructure 943
oren 943
During 942
Gästebewertungen 942
More 942
Zei@@ 942
ame 942
cra@@ 942
mountain 942
wesentlich 942
Strand 941
asse 941
fun@@ 941
increasingly 941
stärker 941
spielt 940
ya 940
committed 939
encourage 939
father 939
lungen 939
pictures 939
schi@@ 939
selbstverständlich 939
verpflichtet 939
24@@ 938
Allerdings 938
Obwohl 938
allgemeinen 938
rural 938
sionen 938
Ihres 937
ini 937
möglicherweise 937
record 937
grow 936
kamen 936
läuft 936
CO2 935
Tran@@ 935
earlier 935
fire 935
folgenden 935
fällt 935
namely 935
persönlichen 935
planning 935
Middle 934
hoffen 934
lö@@ 934
teil 934
150 933
Juli 933
ik 933
stand@@ 933
Vater 932
Weil 932
confidence 932
demands 932
jo@@ 932
ord@@ 932
quiet 932
tal@@ 932
Gel@@ 931
Verhalten 931
gef@@ 931
represents 931
Volk 930
eight 930
erfahren 930
mindestens 930
player 930
tisch 930
At@@ 929
Club 929
Preis@@ 929
patients 929
sicherlich 929
stoffe 929
worldwide 929
Ni@@ 928
Partei 928
Solidarität 928
Microsoft 927
gener@@ 927
mass 927
Berg@@ 926
Stück 926
Vo@@ 926
Wege 926
covered 926
dangerous 926
lag 926
langen 926
rä@@ 926
son@@ 926
50@@ 925
Veränderungen 925
adopt 925
rechte 925
Ak@@ 924
Ober@@ 924
begrüßen 923
players 923
sters 922
zes 922
isn 921
sign 921
strategic 921
Sterne 920
anti 920
betrachtet 920
historischen 920
truly 920
Bundes@@ 919
knows 919
schutz 919
tlichen 919
Hor@@ 918
Zeit@@ 918
protected 918
transfer 918
Every 917
bio@@ 917
falsch 917
relate 917
transparent 917
verb@@ 917
Sachen 916
tik 916
ved 916
,@@ 915
Lan@@ 915
Plan 915
stone 915
zeiten 915
Agenda 914
aff@@ 914
knew 914
lag@@ 914
offered 914
Kultur@@ 913
Technik 913
geschehen 913
restaurants 913
stets 913
Parteien 911
isch@@ 911
session 911
IS 910
Kriterien 910
Most 910
Unterschied 910
comprehensive 910
proper 910
Anerkennung 909
Or 909
impossible 909
representatives 909
tä@@ 909
uri@@ 909
verloren 909
effectively 908
finde 908
spar@@ 908
structural 908
DNA 907
actual 907
contribute 907
offensichtlich 907
schön 907
tw@@ 907
Dazu 906
fri@@ 906
nationale 906
ris@@ 906
suggest 906
turns 906
dly 905
numerous 905
putting 905
release 905
trägt 905
vital 905
2020 904
Conference 904
Indeed 903
comfort 903
currency 903
defined 903
feeling 903
stimme 903
Nutzen 902
ek 902
fla@@ 902
zen@@ 902
Zeiten 901
airport 901
color 901
menschliche 901
larger 900
ou 900
unterschiedlichen 900
Sonder@@ 899
akzeptieren 899
bil@@ 899
erter 899
stable 899
Realität 898
fellow 898
flexible 898
totally 898
download 897
führte 897
konzentrieren 897
edi@@ 896
models 896
serve 896
track 896
Arbeitnehmer 895
Produkt@@ 895
Sommer 895
einfache 895
overall 895
path 895
werte 895
AD@@ 894
priorities 894
speech 894
tik@@ 894
RO@@ 893
Security 893
großes 893
kur@@ 893
nahm 893
welcher 893
Benutzer 892
Hoffnung 892
Meter 892
Nacht 892
ca. 892
ement 892
laden 892
sha@@ 892
tiges 892
Geschichten 891
Rede 891
Reise 891
sieben 891
Rec@@ 890
examples 890
cl@@ 889
länger 889
namens 889
om 889
weg@@ 889
Energi@@ 888
Sektor 888
forget 888
heiten 888
sehe 888
verfolgen 888
warm 888
Anti@@ 887
Pri@@ 887
Vertreter 887
accordance 887
degree 887
discuss 887
ME@@ 886
Pan@@ 886
flu@@ 886
introduced 886
losen 886
sport 886
40@@ 885
comments 885
individuals 885
zahlreichen 885
mainly 884
sources 884
Col@@ 883
Gesamt@@ 883
Hälfte 883
Verkehrs@@ 882
entspricht 882
mittel@@ 882
networks 882
cell 881
dagegen 881
freie 881
intended 881
sales 881
specifically 881
yes 881
Fer@@ 880
Fest@@ 880
Formen 880
Generation 880
Name 880
Unterkategorien 880
fonds 880
jeweiligen 880
perspective 880
politics 880
universe 880
Klein@@ 878
Vereinbarung 878
millions 878
mögliche 878
uner@@ 878
African 877
Glück 877
Urlaub 877
berücksichtigen 877
bro@@ 877
dra@@ 877
teil@@ 877
OR@@ 876
Stadt@@ 876
risks 876
sicherheit 876
wood 876
Über 876
Pol@@ 875
Suche 875
bs 875
played 875
rel@@ 875
weight 875
z. 875
anischen 874
haft 874
haus 874
lig 874
unemployment 874
Gesch@@ 873
studies 873
une 873
Anstrengungen 872
Fo@@ 872
Russian 872
kom@@ 872
placed 872
Bra@@ 871
Room 871
Spieler 871
Tor@@ 871
standing 871
Außen@@ 870
Verpflichtungen 870
approved 870
initiatives 870
onen 870
reduced 870
wil@@ 870
banks 869
eter 869
nation 869
target 869
tter@@ 869
Cre@@ 868
Irak 868
Prinzip 868
Super@@ 868
collection 868
moderne 868
offering 868
processing 868
Mag@@ 867
dient 867
ensuring 867
erhöhen 867
solve 867
Kat@@ 866
Public 866
Zustimmung 866
wasn 866
Ka@@ 865
Wahrheit 865
freuen 865
lie@@ 865
managed 865
prüfen 865
Struktur 864
closely 864
ian 864
ige 864
ko 864
shared 863
.00 862
alisierung 862
appear 862
cohesion 862
competitive 862
Einrichtung 861
Flughafen 861
Mis@@ 861
PL 861
ory 861
participation 861
Red 860
clients 860
dringend 860
greifen 860
Bor@@ 859
Zahlen 859
ft@@ 859
zo@@ 859
Cal@@ 858
Schließlich 858
Stabilität 858
Z 858
dealing 858
funktionieren 858
Ausbildung 857
Bild@@ 857
Debian 857
entstehen 857
entweder 857
ktionen 857
otherwise 857
waiting 857
äl@@ 857
Str@@ 856
correct 856
gewi@@ 856
ised 856
nisse 856
ths 856
Verfassung 855
Zunächst 855
explain 855
selection 855
Centre 854
ah 854
ahead 854
geo@@ 854
kept 854
represent 854
Win@@ 853
endes 853
plus 853
verfügbar 853
Kr@@ 852
cke 852
fan@@ 852
object 852
stimmt 852
tabled 852
Größe 851
Moreover 851
Protokoll 851
cli@@ 851
parking 851
pol@@ 851
suitable 851
wind 851
Em@@ 850
SE@@ 850
ausschließlich 850
beziehen 850
cool 850
cs 850
Yes 849
deutschen 849
inen 849
komplett 849
partnership 849
Menschen@@ 848
Sprachen 848
bottom 848
dlich 848
sicherzustellen 848
verlassen 848
Städte 847
administrative 847
instance 847
kti@@ 847
opened 847
sell 847
watch 847
Kern@@ 846
Only 846
pan@@ 846
vermeiden 846
yp@@ 846
Personal 845
enormous 845
junge 845
Fr@@ 844
Nations 844
gegangen 844
schools 844
ziert 844
zudem 844
Essen 843
Trans@@ 843
gruppe 843
rit@@ 843
schneller 843
shape 843
Ausschuß 842
Studie 842
sation 842
technische 842
vorgelegt 842
Austria 841
Großbritannien 841
Mikro@@ 841
Verwaltung 841
evening 841
gene 841
greatest 841
ist@@ 841
precisely 841
sse 841
Dingen 840
Falle 840
biggest 840
gebiet 840
hinweisen 840
mark 840
Asia 839
amm@@ 839
contract 839
gruppen 839
kommenden 839
reforms 839
Gipfel 838
Paul 838
Wal@@ 838
manner 838
spirit 838
Boden 837
Code 837
discovered 837
Vorteile 836
darstellen 836
memory 836
mes 836
res@@ 836
UK 835
architecture 835
einiger 835
Restaurants 834
communities 834
condition 834
entirely 834
fanden 834
fes@@ 834
od@@ 834
pun@@ 834
sted 834
votes 834
Privat@@ 833
erzielt 833
limit 833
mussten 833
wünschen 833
Revolution 832
apartments 832
assessment 832
bek@@ 832
erzielen 832
followed 832
raise 832
beschlossen 831
reich@@ 831
sa 831
Green 830
Haushalt 830
Social 830
delivery 830
erfolgt 830
flow 830
fying 830
2011 829
ander@@ 829
device 829
experts 829
improving 829
rat 829
unterschiedliche 829
El 828
Frühstück 828
Zeichen 828
cer@@ 828
closer 828
core 828
massive 828
schlagen 828
yst@@ 828
zz@@ 828
Studenten 827
ban 827
differences 827
gestalten 827
tag@@ 827
Research 826
Worten 826
benötigt 826
hel@@ 826
listed 826
privaten 826
senden 826
Pu@@ 825
achten 825
electronic 825
freiheit 825
linked 825
mark@@ 825
pe 825
seriously 825
Amerika 824
bedarf 824
za 824
Hel@@ 823
nu@@ 823
ppen 823
threat 823
Each 822
Once 822
dennoch 822
niemals 822
Binnenmarkt 821
Sitzung 821
alismus 821
discussed 821
Another 820
Star@@ 820
Unfortunately 820
ang@@ 820
ara 820
aspect 820
geändert 820
improved 820
interessiert 820
steigen 820
Abschluss 819
U.S. 819
budgetary 819
discussions 819
elles 819
erende 819
facing 819
hu@@ 819
structures 819
wachsen 819
wel@@ 819
Aspekt 818
Haltung 818
Reformen 818
Wi@@ 818
fly 818
kleiner 818
stated 818
administration 817
blue 817
dienen 817
entry 817
gelangen 817
machines 817
signed 817
sun 817
welt 817
Aufenthalt 816
We@@ 816
cal@@ 816
einsetzen 816
financing 816
forest 816
himself 816
trag@@ 816
veröffentlicht 816
wall 816
DVD 815
Des@@ 815
Luft 815
Mensch 815
Vergleich 815
aimed 815
ick 815
introduction 815
skills 815
Familien@@ 814
d-@@ 814
Op@@ 813
RA@@ 813
Verständnis 813
bet@@ 813
ologie 813
photo 813
strengthen 813
tens 813
cap@@ 812
gerecht 812
programs 812
properly 812
syn@@ 812
Vol@@ 811
Zweifel 811
ität 811
gek@@ 810
hundreds 810
ländern 810
older 810
zusätzliche 810
Are 809
Plat@@ 809
bestehenden 809
developments 809
erfüllt 809
ersch@@ 809
foot 809
port 809
Kal@@ 808
enst@@ 808
sides 808
wrote 808
Methode 807
Michael 807
entsprechende 807
failure 807
finanziellen 807
größeren 807
jungen 807
pra@@ 807
produ@@ 807
tour 807
uren 807
Arbeiten 806
character 806
definition 806
gezogen 806
ically 806
ins@@ 806
reicht 806
respond 806
Bad 805
Bet@@ 805
Pakistan 805
betonen 805
darunter 805
herum 805
Gesetz 804
Wettbewerbsfähigkeit 804
Bas@@ 803
Einrichtungen 803
Fortschritt 803
Homepage 803
Pap@@ 803
Those 803
stein 803
truth 803
Gründe 802
Material 802
Tatsächlich 802
expected 802
geln 802
Min@@ 801
blood 801
einzelne 801
referred 801
Geld@@ 800
easier 800
guidelines 800
las@@ 800
regular 800
starke 800
wenigen 800
authority 799
e-@@ 799
markt 799
moved 799
spread 799
01 798
Pen@@ 798
Prä@@ 798
Tod 798
eye 798
lichem 798
oo@@ 798
rück@@ 798
unfortunately 798
Free 797
Universität 797
ergreifen 797
alo@@ 796
union 796
Gro@@ 795
Produkten 795
Where 795
recognition 795
umgesetzt 795
Ausgaben 794
Fischerei@@ 794
Great 794
automatisch 794
bt 794
element 794
onto 794
stoff 794
verlieren 794
passed 793
somebody 793
ó@@ 793
EL@@ 792
Engagement 792
Wein@@ 792
acts 792
ai@@ 792
discrimination 792
hot 792
mut@@ 792
psych@@ 792
tage 792
Eing@@ 791
Leider 791
Monat 791
ay 791
explo@@ 791
lieren 791
positions 791
supporting 791
95 790
Kontakt 790
Street 790
aries 790
ced 790
died 790
functions 790
verbessert 790
Durchführung 789
tte 789
Alles 788
back@@ 788
drawn 788
fung 788
shopping 788
stock 788
Instrumente 787
Kre@@ 787
Regel 787
ativen 787
erstellt 787
immigration 787
institutional 787
meaning 787
obvious 787
politischer 787
° 787
stes 786
vis@@ 786
ßt 786
Mas@@ 785
Mitteilung 785
US@@ 785
cat@@ 785
rich@@ 785
ssi@@ 785
Christian 784
Teilen 784
Vertrags 784
summit 784
zeit@@ 783
HIV 782
Versuch 782
aktuelle 782
convinced 782
fall@@ 782
stadt 782
stoff@@ 782
tional 782
val@@ 782
wait 782
Jahrhunderts 781
My@@ 781
Wirklichkeit 781
arten 781
daten 781
hom@@ 781
sam@@ 781
sterben 781
ton@@ 781
ures 781
garden 780
gelegt 780
gers 780
punkt 780
reg@@ 780
übernachten 780
Lehr@@ 779
NATO 779
concrete 779
nte 779
optim@@ 779
Fra@@ 778
Lam@@ 778
Problemen 778
appears 778
diskutieren 778
festgelegt 778
fle@@ 778
plan@@ 778
smaller 778
south 778
98 777
Gebieten 777
Wa@@ 777
interessant 777
sufficient 777
trifft 777
Kommunikation 776
eingehen 776
freue 776
irgendwie 776
offen@@ 776
purposes 776
stärken 776
Botschaft 775
Its 775
kulturellen 775
notice 775
Airport 774
fresh 774
ier 774
mehreren 774
ours 774
practices 774
presence 774
talks 774
Last 773
dank 773
schlecht 773
typical 773
Atom@@ 772
Sea 772
bedingungen 772
broad 772
cy 772
oni@@ 772
Fl@@ 771
Kol@@ 771
besonderen 771
che@@ 771
Plan@@ 770
fel@@ 770
ku@@ 770
sign@@ 770
Funktionen 769
Pe@@ 769
automatically 769
capable 769
lie 769
Meeres@@ 768
Mitgliedstaat 768
calling 768
recht@@ 768
Sei@@ 767
fisheries 767
halt 767
ine@@ 767
Bl@@ 766
Cas@@ 766
Hotel@@ 766
Swiss 766
TE@@ 766
Tätigkeit 766
decades 766
marketing 766
post@@ 766
verfolgt 766
ye 766
Forderung 765
attempt 765
founded 765
fund 765
gelöst 765
tig@@ 765
Inhalte 764
swimming 764
Mess@@ 763
cally 763
components 763
consumption 763
feature 763
ined 763
spending 763
Hintergrund 762
bathroom 762
combat 762
drugs 762
gem 762
rechten 762
sprach 762
touch 762
Agreement 761
Anspruch 761
Fotos 761
Zeitraum 761
fähig 761
hinter@@ 761
houses 761
nation@@ 761
ring 761
ture 761
beauty 760
burg 760
fahrt 760
persönlich 760
sky 760
sum@@ 760
600 759
Abend 759
band 759
carbon 759
competitiveness 759
couldn 759
ct 759
eat 759
ently 759
Le 758
Tages 758
desire 758
detailed 758
gain 758
igen 758
skin 758
England 757
Syn@@ 757
con 757
echte 757
moral 757
notwendigen 757
reducing 756
signal 756
urban 756
Grand 755
His 755
Tro@@ 755
char@@ 755
lokalen 755
Bürger@@ 754
Na@@ 754
ato 754
stei@@ 754
è@@ 754
Datei 753
Wer@@ 753
absolute 753
fit 753
folgende 753
institution 753
operations 753
Ter@@ 752
feststellen 752
guys 752
religious 752
Kom@@ 751
einzigen 751
EC 750
ON@@ 750
com 750
dliche 750
früher 750
reagieren 750
spro@@ 750
ze@@ 750
Herstellung 749
Süd@@ 749
cul@@ 749
feld 749
gri@@ 749
ka@@ 749
konkrete 749
leader 749
siehe 749
² 749
Grenz@@ 748
Medi@@ 748
bal@@ 748
ended 748
wahr 748
6.@@ 747
Pl@@ 747
Standards 747
Vereinten 747
hit 747
inform@@ 747
jährigen 747
producers 747
sensitive 747
t-@@ 747
klare 746
named 746
prior 746
shop 746
spiel 746
äch@@ 746
Herz@@ 745
Zweck 745
boo@@ 745
criminal 745
detail 745
generally 745
objects 745
trotzdem 745
Abschließend 744
Elemente 744
ological 744
organization 744
permanent 744
ty@@ 744
Human 743
Stellungnahme 743
carefully 743
causes 743
immediate 743
Del@@ 742
aro@@ 742
election 742
hängt 742
rufen 742
Tu@@ 741
campaign 741
creative 741
dad 741
duty 741
ination 741
ki 741
wh@@ 741
36 740
Gre@@ 740
Hin@@ 740
Nord@@ 740
Poland 740
anstatt 740
described 740
dy@@ 740
ple@@ 740
vers 740
wirken 740
CA@@ 739
Economic 739
Switzerland 739
bringing 739
hum@@ 739
kes 739
Policy 738
Val@@ 738
debt 738
finanzielle 738
pping 738
Leistungen 737
Regelung 737
Roma 737
fuel 737
ik@@ 737
installation 737
nahmen 737
existence 736
gem@@ 736
gutes 736
lungs@@ 736
slo@@ 736
tourism 736
Ü@@ 736
Beispiele 735
diversity 735
erstellen 735
kor@@ 735
lieb@@ 735
origin 735
theory 735
February 734
Greece 734
bes 734
ching 734
erscheint 734
geboren 734
graphic 734
län@@ 734
unless 734
uns@@ 734
verk@@ 734
associated 733
fac@@ 733
Fisch@@ 732
Star 732
engineering 732
una 732
Öl@@ 732
Fin@@ 731
Geb@@ 731
discover 731
glich 731
museum 731
möglichst 731
zuerst 731
Costa 730
Zi@@ 730
ada 730
fol@@ 730
introduce 730
nis@@ 730
scientists 730
vorgesehen 730
zentrum 730
EL 729
Transport 729
Wor@@ 729
egal 729
lä@@ 729
mental 729
ning 729
possibilities 729
rop@@ 729
television 729
unabhängig 729
Webseite 728
Währung 728
adoption 728
article 728
failed 728
fte 728
lar@@ 728
lebt 728
sobald 728
Abgeordnete 727
Fähigkeiten 727
fähigkeit 727
nor@@ 727
Char@@ 726
DI@@ 726
Schutz@@ 726
ering 726
tere 726
weapons 726
™ 726
Ordnung 725
Voll@@ 725
eigen@@ 725
fälle 725
globale 725
provision 725
sou@@ 725
Vorstellung 724
meetings 724
meters 724
refer 724
wichtigste 724
Bush 723
Hauses 723
Mil@@ 723
Netzwerk 723
Publikum 723
consideration 723
expensive 723
names 723
store 723
tradition 723
winter 723
Ö@@ 723
1995 722
Adresse 722
Geist 722
Menschenrechts@@ 722
positiv 722
realized 722
schönen 722
worse 722
Initiativen 721
Multi@@ 721
experienced 721
Sorge 720
Sti@@ 720
abkommen 720
mitteln 720
starts 720
täglich 720
Open 719
applies 719
cri@@ 719
fy 719
harmon@@ 719
teilweise 719
Bre@@ 718
Denken 718
Zudem 718
arms 718
considerable 718
finance 718
Dateien 717
Musik@@ 717
ancient 717
denk@@ 717
difficulties 717
flexibility 717
kers 717
ordnung 717
phase 717
quote 717
schutz@@ 717
zogen 717
Achtung 716
Leistung 716
Ob@@ 716
Risiko 716
Stand 716
Sur@@ 716
behavior 716
ester 716
gearbeitet 716
hon@@ 716
menu 716
vehicles 716
vorhanden 716
800 715
Dra@@ 715
Peter 715
economies 715
enterprises 715
guter 715
informed 715
vari@@ 715
Alter 714
Künstler 714
coordination 714
gaben 714
vollkommen 714
Europeans 713
Krankheiten 713
Verwaltungs@@ 713
patient 713
supports 713
MA@@ 712
Standard 712
Station 712
atic 712
erhält 712
hilft 712
implementing 712
promoting 712
propose 712
sec@@ 712
tic@@ 712
visitors 712
zieren 712
Neben 711
Status 711
compared 711
domestic 711
extensive 711
kitchen 711
lang@@ 711
miles 711
poli@@ 711
presidency 711
unglaublich 711
wal@@ 711
Golf 710
Health 710
Rom@@ 710
analy@@ 710
brand 710
driving 710
erin 710
exercise 710
geleistet 710
istischen 710
rent 710
zuletzt 710
´ 710
Autos 709
Kunden@@ 709
Mel@@ 709
Prioritäten 709
arm 709
besuchen 709
brachte 709
exclusive 709
healthy 709
kleines 709
lig@@ 709
loc@@ 709
square 709
ungspro@@ 709
Firmen 708
Gemeinsamen 708
Sonne 708
Tel@@ 708
bekommt 708
erg@@ 708
extreme 708
finding 708
fü@@ 708
manage 708
pieces 708
Druck@@ 707
Eindruck 707
Einigung 707
Kenntnis 707
durchaus 707
granted 707
hergestellt 707
wahr@@ 707
weiterer 707
wen@@ 707
9.@@ 706
Bis 706
Far@@ 706
Lesung 706
Schweiz 706
Selbst 706
Trade 706
bear 706
inc@@ 706
wann 706
äh@@ 706
Beziehung 705
Fonds 705
Verkehr 705
estate 705
hast 705
trees 705
7.@@ 704
Bedürfnisse 704
Brussels 704
Dennoch 704
Entwicklungen 704
Foundation 704
Mer@@ 704
Reaktion 704
Test@@ 704
dor@@ 704
ett 704
gefordert 704
ha 704
inform 704
yesterday 704
Aufnahme 703
Besuch 703
Kraft@@ 703
advanced 703
dance 703
dec@@ 703
fixed 703
humanitarian 703
improvement 703
journey 703
All@@ 702
Pra@@ 702
dritte 702
ica 702
identity 702
messen 702
speziell 702
stellten 702
Ä@@ 702
Sport 701
agencies 701
artists 701
behandeln 701
beschäftigt 701
continues 701
dark 701
ierung 701
min 701
Klimawandel 700
Post@@ 700
remind 700
verstanden 700
Eastern 699
factors 699
hab@@ 699
näher 699
person@@ 699
showing 699
tly 699
Garten 698
Haus@@ 698
ID 698
Res@@ 698
48 697
Welche 697
devices 697
helping 697
row 697
ther 697
vier@@ 697
willing 697
Belarus 696
Freude 696
Lehrer 696
cia 696
fordert 696
minister 696
Februar 695
anten 695
besseren 695
outcome 695
showed 695
Nieder@@ 694
constantly 694
don@@ 694
iti@@ 694
unterstütze 694
Gas@@ 693
Klima@@ 693
Veränderung 693
dge 693
fal@@ 693
gehalten 693
glass 693
les@@ 693
perfectly 693
übertragen 693
Bildungs@@ 692
Krankheit 692
Rest 692
items 692
nötig 692
tal 692
33 691
Beitritt 691
Mac@@ 691
Schulen 691
dro@@ 691
opposition 691
peaceful 691
sets 691
tätig 691
wn 691
Antworten 690
Arbeitslosigkeit 690
Berichte 690
ched 690
chter 690
leadership 690
Bewertung 689
Erd@@ 689
Foto 689
PT 689
alter 689
attack 689
cards 689
elegant 689
expression 689
feet 689
geeignet 689
istische 689
leiden 689
pleasant 689
pul@@ 689
statements 689
strongly 689
usw. 689
Gegenteil 688
Verhältnis 688
dig 688
electricity 688
participate 688
sel 688
tigung 688
Lie@@ 687
Maße 687
Nachrichten 687
klicken 687
ole 687
DA@@ 686
LA@@ 686
Treffen 686
forced 686
gelegen 686
season 686
Forum 685
Westen 685
Zwei@@ 685
ater 685
ba 685
email 685
gegenwärtig 685
insurance 685
selected 685
solcher 685
wunder@@ 685
Bro@@ 684
SP@@ 684
Sand@@ 684
las 684
praktisch 684
sions@@ 684
Justice 683
Texte 683
ads 683
entdecken 683
größer 683
zählen 683
Architektur 682
Gebiete 682
Innen@@ 682
Internet@@ 682
Irland 682
angesprochen 682
ausdrücklich 682
1994 681
Pat@@ 681
Wissenschaftler 681
disp@@ 681
gegenwärtigen 681
print 681
tical 681
Forderungen 680
Korea 680
Met@@ 680
eck 680
eingeführt 680
faster 680
parliamentary 680
unbe@@ 680
Analyse 679
De 679
Einhaltung 679
demokratische 679
fill 679
gestern 679
incredible 679
seek 679
served 679
sized 679
tter 679
unge@@ 679
37 678
Mitteln 678
acting 678
continued 678
keiner 678
ships 678
ungsp@@ 678
MP@@ 677
Santa 677
conc@@ 677
counter@@ 677
hundred 677
jederzeit 677
wirtschaft 677
zt 677
Can@@ 676
Washington 676
air@@ 676
by@@ 676
diseases 676
haf@@ 676
Infrastruktur 675
grün@@ 675
werfen 675
Institute 674
MO@@ 674
letter 674
sta 674
starken 674
führ@@ 673
humans 673
ocean 673
Durch@@ 672
Polen 672
Unterschiede 672
kin@@ 672
lets 672
schw@@ 672
zentrale 672
Anteil 671
Meiner 671
advice 671
beds 671
cle@@ 671
gelernt 671
heits@@ 671
informieren 671
reasonable 671
sierte 671
195@@ 670
Chi@@ 670
IP 670
except 670
lived 670
sam 670
sucht 670
zufrieden 670
á 670
Eigenschaften 669
Firstly 669
Hal@@ 669
ams 669
ania 669
aufmerksam 669
beinhaltet 669
defence 669
licherweise 669
mobili@@ 669
squ@@ 669
trip 669
window 669
1990 668
Farben 668
Grenze 668
Sonnen@@ 668
background 668
cking 668
figures 668
programm 668
tn@@ 668
Dienste 667
Dorf 667
Partnerschaft 667
Programms 667
Reise@@ 667
Schw@@ 667
Yet 667
cho@@ 667
display 667
ona 667
released 667
spezielle 667
telephone 667
Antrag 666
Dr@@ 666
ble@@ 666
database 666
far@@ 666
illi@@ 666
sten@@ 666
42 665
55 665
Freund 665
brechen 665
gegründet 665
limits 665
mati@@ 665
tives 665
trading 665
Sil@@ 664
Stunde 664
monetary 664
neither 664
sle@@ 664
tasks 664
vehicle 664
Anwendungen 663
Dan@@ 663
Märkte 663
Two 663
Versch@@ 663
bezeichnet 663
brings 663
d. 663
helped 663
suffering 663
Frankfurt 662
Madrid 662
audience 662
controls 662
eingerichtet 662
holen 662
select 662
self-@@ 662
terrace 662
Überwachung 662
AIDS 661
As@@ 661
Kirche 661
Pas@@ 661
Seine 661
chs@@ 661
demo@@ 661
helpful 661
iel@@ 661
los@@ 661
persönliche 661
y-@@ 661
Angesichts 660
Bon@@ 660
George 660
Ren@@ 660
comment 660
gewisse 660
gewährleistet 660
han@@ 660
hauptsächlich 660
realize 660
situations 660
treated 660
Bus@@ 659
Gei@@ 659
Ost@@ 659
Qualitäts@@ 659
Vortrag 659
Wo 659
ately 659
elected 659
ely 659
fron@@ 659
fs 659
licht 659
regionalen 659
spiel@@ 659
vorher 659
ähnlich 659
Democrats 658
Entwurf 658
Mio. 658
Niveau 658
a-@@ 658
kürzlich 658
leads 658
mine 658
profitieren 658
understood 658
welchen 658
Straßen@@ 657
Wil@@ 657
beteiligt 657
coffee 657
stattfinden 657
vern@@ 657
zustimmen 657
Dec@@ 656
ID@@ 656
jeweils 656
lebens@@ 656
pped 656
tourist 656
34 655
Begriff 655
Best 655
CH@@ 655
Schlüssel@@ 655
ante 655
experiences 655
geschützt 655
2013 654
Association 654
Dem@@ 654
Globalisierung 654
Politiker 654
client 654
med 654
opposite 654
river 654
wesentlichen 654
Gesetze 653
Men@@ 653
Rechnung 653
Wettbewerbs@@ 653
aims 653
combination 653
conclusions 653
dynamic 653
familiar 653
schafts@@ 653
schöne 653
wiederum 653
überprüfen 653
aging 652
chosen 652
exciting 652
inv@@ 652
meant 652
sit 652
Methoden 651
Obama 651
Titel 651
Zustand 651
colleague 651
Board 650
Czech 650
Fuß 650
Raum@@ 650
advertising 650
announced 650
grounds 650
quick 650
ungsan@@ 650
Air 649
Kompromiss 649
bert 649
dead 649
flü@@ 649
hof 649
riesigen 649
tests 649
wider 649
65 648
Ansch@@ 648
Mand@@ 648
Right 648
begonnen 648
chan@@ 648
eigenes 648
ited 648
telling 648
ward 648
Apartments 647
Fol@@ 647
Guest 647
Nevertheless 647
Tour 647
extraordinary 647
oral 647
work@@ 647
IN 646
Indi@@ 646
Kli@@ 646
Straßen 646
Stärkung 646
Wirkung 646
ausschuss 646
charged 646
clo@@ 646
cru@@ 646
etc. 646
fangen 646
linie 646
mini@@ 646
mögen 646
sounds 646
sun@@ 646
werke 646
wie@@ 646
Gri@@ 645
affect 645
allowing 645
block 645
britischen 645
nearly 645
sale 645
temperature 645
Agrar@@ 644
Martin 644
combined 644
drug 644
fli@@ 644
ining 644
landscape 644
mt 644
profit 644
ust 644
Barroso 643
Beteiligung 643
Dokument 643
Kingdom 643
contrary 643
lieben 643
nachhaltige 643
nah@@ 643
sses 643
yn@@ 643
Dimension 642
Roboter 642
Universum 642
Vorteil 642
angezeigt 642
claims 642
elten 642
establishment 642
festgestellt 642
gesellschaft 642
ingen 642
serv@@ 642
sichern 642
steel 642
unmöglich 642
wealth 642
weiteres 642
ET@@ 641
Irish 641
Uni@@ 641
district 641
ker@@ 641
kämpfen 641
omm@@ 641
200@@ 640
Gleichzeitig 640
Richtlinien 640
ann 640
equality 640
ertes 640
fein@@ 640
keeping 640
operate 640
platform 640
stoffen 640
umfasst 640
Aussch@@ 639
Design@@ 639
bildung 639
führenden 639
unacceptable 639
wishes 639
Banken 638
Richard 638
SI@@ 638
Sie@@ 638
ells 638
fighting 638
firm 638
flight 638
helps 638
mem@@ 638
sh 638
stan@@ 638
tar@@ 638
Jedes 637
Los 637
Sehr 637
ash 637
factor 637
genen 637
genuine 637
jemals 637
laid 637
north 637
sodass 637
stor@@ 637
Aufbau 636
Autom@@ 636
MS 636
bekannten 636
bers 636
bor@@ 636
format 636
pointed 636
schen@@ 636
seien 636
ware 636
250 635
Ski@@ 635
Ziel@@ 635
angeht 635
balanced 635
dimension 635
eli@@ 635
gingen 635
nations 635
schicken 635
Don 634
Ph@@ 634
Rad@@ 634
Regelungen 634
Tradition 634
Willen 634
claim 634
drei@@ 634
komme 634
lay 634
metres 634
werk@@ 634
öl@@ 634
Ereignisse 633
cing 633
haften 633
ising 633
kostet 633
passieren 633
zieht 633
,00 632
Erklärungen 632
Flu@@ 632
ado 632
coast 632
Morgen 631
consistent 631
seh@@ 631
sli@@ 631
technological 631
š@@ 631
Gesellschaften 630
advance 630
allgemeine 630
ands 630
bigger 630
ischem 630
race 630
reliable 630
scht 630
sum 630
wagen 630
38 629
Due 629
Gegensatz 629
Installation 629
Instead 629
National@@ 629
Thomas 629
Verpflichtung 629
apo@@ 629
ered 629
erer 629
erforderlichen 629
fällen 629
hingewiesen 629
politisch 629
tau@@ 629
verbundenen 629
Entschließungsantrag 628
Liefer@@ 628
PS 628
abo@@ 628
einfachen 628
exists 628
oper@@ 628
stehenden 628
vit@@ 628
Vielzahl 627
kul@@ 627
lia 627
physi@@ 627
unto 627
urgent 627
Comp@@ 626
Don@@ 626
Stil 626
ella 626
fantastic 626
übrigens 626
EG 625
Materialien 625
beobachten 625
etz@@ 625
girls 625
zig 625
Agentur 624
Computer@@ 624
Ei@@ 624
ON 624
Prime 624
Regulation 624
Zellen 624
ari 624
conclude 624
dritten 624
entwickelten 624
sexual 624
thousand 624
tur 624
Latin 623
betroffen 623
court 623
goals 623
inst@@ 623
keinerlei 623
26@@ 622
bedeuten 622
diskutiert 622
extended 622
ile 622
ill 622
interessante 622
mechanism 622
reisen 622
translation 622
werten 622
3D 621
Europäer 621
Kritik 621
Poli@@ 621
Studien 621
deliver 621
ener 621
ierten 621
manche 621
Ir@@ 620
Net@@ 620
acy 620
aussehen 620
einf@@ 620
guarantees 620
Hersteller 619
ai 619
asylum 619
cent 619
eng 619
erfolgen 619
focused 619
formen 619
mittels 619
streets 619
tat 619
.... 618
Buch@@ 618
ernst 618
gelungen 618
ire 618
ländlichen 618
oll@@ 618
possibly 618
regi@@ 618
shops 618
testing 618
tions@@ 618
vorschlagen 618
wissenschaftlichen 618
zeichen 618
Angaben 617
Phase 617
interface 617
tour@@ 617
wirkt 617
AG@@ 616
According 616
Beschreibung 616
attractive 616
corporate 616
extend 616
extrem 616
ktion@@ 616
ky 616
lon@@ 616
paragraph 616
radio 616
Beitritts@@ 615
Maschine 615
creates 615
engine 615
gemein@@ 615
nden 615
pel 615
sinn@@ 615
Agency 614
Laufe 614
Priorität 614
Spiele 614
candidate 614
computers 614
französischen 614
h. 614
internationaler 614
leiten 614
manufacturing 614
rep@@ 614
spaces 614
umfassende 614
öffnen 614
2,@@ 613
Massen@@ 613
Rahmen@@ 613
Sta@@ 613
define 613
dol@@ 613
dur@@ 613
gering@@ 613
tically 613
Österreich 613
übrigen 613
Farbe 612
Liber@@ 612
complicated 612
dlichen 612
drawing 612
exhibition 612
expenditure 612
garantiert 612
tigkeit 612
tigt 612
tz 612
unable 612
ye@@ 612
8.@@ 611
Definition 611
Hi@@ 611
ambitious 611
arbeitete 611
ausreichend 611
barer 611
bern 611
disaster 611
fort 611
hy@@ 611
intervention 611
kostenlos 611
obtain 611
revolution 611
stars 611
verbinden 611
vorliegenden 611
Auto@@ 610
Camp@@ 610
Komfort 610
Risiken 610
Robert 610
Tisch 610
Umständen 610
bas@@ 610
besitzt 610
commitments 610
entgegen@@ 610
fing 610
si 610
sitzen 610
targets 610
Fälle 609
Netherlands 609
Sha@@ 609
Video@@ 609
independence 609
kol@@ 609
lichkeiten 609
recovery 609
registered 609
rightly 609
sold 609
ständigen 609
wed 609
zimmer 609
Führung 608
Nachricht 608
lo 608
non@@ 608
responsibilities 608
solar 608
talked 608
zeichnet 608
Bedenken 607
Cap@@ 607
Home 607
Media 607
Sam@@ 607
bit@@ 607
eff@@ 607
fassen 607
fäl@@ 607
holding 607
host 607
legung 607
nom@@ 607
regeln 607
territory 607
traditionellen 607
zufolge 607
85 606
Nu@@ 606
einverstanden 606
nationaler 606
wär@@ 606
Beschäftigungs@@ 605
Kl@@ 605
career 605
head@@ 605
initial 605
relativ 605
96 604
Beim 604
Grundsatz 604
Nachdem 604
ain 604
ery 604
export 604
organizations 604
schul@@ 604
wonder 604
Dom@@ 603
Fil@@ 603
Island 603
Thanks 603
Umfang 603
determined 603
down@@ 603
fliegen 603
posi@@ 603
schafft 603
speziellen 603
staatlichen 603
wusste 603
Hon@@ 602
Life 602
Spa 602
Studio 602
argument 602
erhöht 602
grundlegenden 602
mei@@ 602
natürlichen 602
purchase 602
tom@@ 602
Besucher 601
Such 601
adi@@ 601
cy@@ 601
danger 601
geh@@ 601
grundlegende 601
temp@@ 601
Palestinian 600
atives 600
kar@@ 600
successfully 600
teachers 600
ular 600
vielmehr 600
Fran@@ 599
Griechenland 599
Netz 599
Teil@@ 599
attacks 599
button 599
chemical 599
gkeit 599
inger 599
prevention 599
resi@@ 599
tum 599
Bil@@ 598
Spaß 598
abhängig 598
ansehen 598
answers 598
ließ 598
ong 598
spe@@ 598
spec@@ 598
urge 598
Foreign 597
Geschäftsordnung 597
SO@@ 597
School 597
UR@@ 597
bahn 597
mehr@@ 597
sammeln 597
Bedarf 596
Sweden 596
Ton@@ 596
bestätigt 596
church 596
erlauben 596
establishing 596
lautet 596
societies 596
tree 596
Hamburg 595
entitled 595
esen 595
fern 595
fication 595
langsam 595
sper@@ 595
Links 594
Strukturen 594
agency 594
ami 594
enables 594
erscheinen 594
governance 594
ktions@@ 594
opp@@ 594
rapid 594
seite 594
stabili@@ 594
wasser@@ 594
web@@ 594
EADS 593
Maschinen 593
Oberfläche 593
Orte 593
Second 593
ama 593
cold 593
deiner 593
faced 593
girl 593
int 593
jüngsten 593
ked 593
produzieren 593
staaten 593
ungs- 593
Americans 592
Fa@@ 592
Gal@@ 592
Komp@@ 592
abgeschlossen 592
ambi@@ 592
connect 592
dige 592
gas@@ 592
nine 592
pick 592
reservation 592
stände 592
vast 592
és 592
öh@@ 592
Charakter 591
Pf@@ 591
Square 591
Verbrechen 591
Waffen 591
club 591
courses 591
positiven 591
produziert 591
resort 591
sischen 591
ultimately 591
AB@@ 590
Aktionen 590
Beh@@ 590
Strategien 590
Time 590
artist 590
completed 590
dienst 590
hafte 590
strength 590
tiv@@ 590
Empfehlungen 589
Englisch 589
ISO 589
gewählt 589
lied 589
nten 589
plötzlich 589
schätzen 589
wan@@ 589
Gl@@ 588
Schengen 588
TED@@ 588
Who 588
amerikanische 588
anz 588
besitzen 588
bezahlen 588
bli@@ 588
merely 588
top@@ 588
Fraktionen 587
Vision 587
fiscal 587
fragte 587
glücklich 587
graphy 587
leaving 587
monitor 587
pleasure 587
route 587
sierten 587
unit 587
verhalten 587
vorgeschlagenen 587
39 586
Flexibilität 586
Liberalisierung 586
Sprach@@ 586
Wegen 586
liefern 586
marked 586
ous@@ 586
primary 586
Entwicklungsländern 585
Voraussetzungen 585
alization 585
collective 585
jährlich 585
spor@@ 585
Ap@@ 584
Greek 584
Sehen 584
akzeptiert 584
essentially 584
raten 584
rechtlichen 584
seeking 584
träge 584
umwelt@@ 584
Auge 583
Turkish 583
ate@@ 583
cm 583
cycle 583
discussing 583
entsprechen 583
intensive 583
oh@@ 583
photos 583
politicians 583
regelmäßig 583
sup@@ 583
western 583
Hy@@ 582
Option 582
Verbindungen 582
annehmen 582
chain 582
ierte 582
industries 582
jahr 582
religion 582
Amerikaner 581
Fle@@ 581
accessible 581
art@@ 581
boat 581
killed 581
kurzem 581
legi@@ 581
mäßig 581
organised 581
promotion 581
sex 581
sia 581
sicher@@ 581
Brüssel 580
Hinweis 580
Kamera 580
atoren 580
ergeben 580
garantieren 580
rein 580
texts 580
Überprüfung 580
AM@@ 579
Beihilfen 579
Diskussionen 579
Dor@@ 579
Experten 579
Global 579
Körper@@ 579
beg@@ 579
continuing 579
dedicated 579
elte 579
identify 579
informiert 579
my@@ 579
selben 579
sem@@ 579
20. 578
Dort 578
Energy 578
Gleich@@ 578
Hol@@ 578
Produktions@@ 578
Ster@@ 578
cas@@ 578
ee 578
imp@@ 578
nieder@@ 578
noise 578
spacious 578
tenen 578
xi@@ 578
Absatz 577
J 577
Photo@@ 577
Verbraucher@@ 577
amen 577
contain 577
controlled 577
erzählt 577
leistungs@@ 577
nachdenken 577
q 577
regret 577
reich 577
sämtliche 577
43 576
Brenn@@ 576
Britain 576
Han@@ 576
Kno@@ 576
Mus@@ 576
PA 576
Sorgen 576
Techn@@ 576
acceptable 576
behalten 576
entlang 576
etten 576
mountains 576
standen 576
substantial 576
Boo@@ 575
LO@@ 575
Volks@@ 575
ame@@ 575
ared 575
aufen 575
honourable 575
ken@@ 575
shot 575
speakers 575
verbringen 575
vorher@@ 575
Betrieb 574
End@@ 574
Environment 574
Gesetzgebung 574
exc@@ 574
finished 574
ink 574
railway 574
supposed 574
weist 574
Kin@@ 573
facts 573
leu@@ 573
membership 573
okay 573
tag 573
wat@@ 573
zählt 573
Anliegen 572
Mau@@ 572
atische 572
beings 572
dest 572
echten 572
entered 572
installed 572
ises 572
meat 572
treiben 572
verlangen 572
verursacht 572
Nicht@@ 571
Prüfung 571
Take 571
ane 571
angeboten 571
gol@@ 571
hau@@ 571
kurze 571
obligations 571
president 571
recommendations 571
tene 571
zusätzlich 571
Paket 570
Start 570
The@@ 570
Unabhängigkeit 570
apart 570
booking 570
enzen 570
eventually 570
komm@@ 570
medicine 570
nochmals 570
Al 569
everywhere 569
lauf@@ 569
primarily 569
statistics 569
swe@@ 569
tende 569
Arbeit@@ 568
Constitution 568
contained 568
fas@@ 568
mil@@ 568
soft 568
zurückzu@@ 568
07 567
1992 567
Cam@@ 567
Hinter@@ 567
Kenn@@ 567
Lauf@@ 567
Zwei 567
bild 567
ending 567
erfordert 567
heim 567
ome 567
Anpassung 566
IL@@ 566
Muster 566
Regi@@ 566
Unternehmens@@ 566
author 566
chts@@ 566
chtung 566
cuisine 566
ena 566
planned 566
schrieb 566
sicherstellen 566
28@@ 565
Fenster 565
Festival 565
alt@@ 565
burden 565
ei 565
entsteht 565
exp@@ 565
schau@@ 565
title 565
zuge@@ 565
Holz@@ 564
berei@@ 564
indi@@ 564
ink@@ 564
relatively 564
satellite 564
wodurch 564
Bes@@ 563
Beweis 563
Lau@@ 563
Mehr 563
achieving 563
availability 563
baby 563
basiert 563
denkt 563
literally 563
movie 563
stations 563
strategie 563
09 562
97 562
Krebs 562
Mach@@ 562
Reg@@ 562
Regierungs@@ 562
Yeah 562
audi@@ 562
betreffen 562
elled 562
frei@@ 562
olo@@ 562
pers 562
spreche 562
zugänglich 562
anfangen 561
fail 561
formed 561
payments 561
satz 561
slow 561
tab@@ 561
tenden 561
tho@@ 561
A5 560
Kontroll@@ 560
aci@@ 560
bon@@ 560
eck@@ 560
erinnert 560
kulturelle 560
mechan@@ 560
producing 560
remove 560
sharing 560
unternommen 560
ute 560
wir@@ 560
Dutch 559
ere@@ 559
explore 559
nobody 559
organized 559
prove 559
seconds 559
storage 559
tern@@ 559
Chris 558
Q 558
Städten 558
auen 558
bridge 558
continent 558
entstanden 558
gens 558
meist 558
ought 558
rely 558
rock 558
setzung 558
spo@@ 558
stellungen 558
teilt 558
Öl 558
Canada 557
Eigen@@ 557
IA 557
Private 557
Resort 557
copy 557
derzeitigen 557
sicht 557
student 557
viel@@ 557
wichtiges 557
Cha@@ 556
Data 556
Details 556
ECU 556
Eis@@ 556
Test 556
genes 556
guide 556
lü@@ 556
mobility 556
mostly 556
ports 556
surrounding 556
utili@@ 556
valuable 556
verkaufen 556
49 555
Kam@@ 555
Like 555
Pak@@ 555
consensus 555
geöffnet 555
ktive 555
net@@ 555
ot 555
temporary 555
visual 555
Erhöhung 554
III 554
Mitgliedern 554
Norden 554
Weiter@@ 554
White 554
aden 554
earth 554
equ@@ 554
fuhr 554
mechanisms 554
zus@@ 554
Control 553
Cro@@ 553
Geh@@ 553
Stre@@ 553
Untersuchung 553
kno@@ 553
Diskriminierung 552
James 552
gefragt 552
gs@@ 552
normalerweise 552
sprachen 552
taxes 552
tures 552
überzeugen 552
Ausland 551
Company 551
Enterprise 551
Gerät 551
Islam 551
Their 551
cheap 551
dream 551
gungen 551
ita 551
relax 551
richtlinie 551
soweit 551
Ebenso 550
mache 550
pal@@ 550
schlägt 550
smart 550
taste 550
zige 550
ç@@ 550
Effizienz 549
Other 549
Professor 549
Stand@@ 549
Stu@@ 549
Vorbereitung 549
Werk@@ 549
arrival 549
ata 549
bezieht 549
bist 549
heavy 549
multiple 549
nearby 549
opposed 549
significantly 549
Dienst 548
Grundrechte 548
Identität 548
Männern 548
Rooms 548
anerkannt 548
ath@@ 548
cked 548
gei@@ 548
konkreten 548
ktiv 548
scheinen 548
weltweiten 548
08 547
Herz 547
Klasse 547
Rat@@ 547
advantages 547
attitude 547
dungen 547
glichen 547
höher 547
inner 547
ord 547
personally 547
represented 547
sy@@ 547
zugleich 547
zy@@ 547
Hü@@ 546
anische 546
dom@@ 546
höhere 546
kn@@ 546
reflect 546
spezi@@ 546
vo 546
0,@@ 545
41 545
alised 545
ect 545
gespielt 545
presentation 545
Allgemeinen 544
Ci@@ 544
Haup@@ 544
Lebensmittel@@ 544
Mehr@@ 544
Papier 544
Pop@@ 544
Problems 544
approval 544
category 544
cro@@ 544
delay 544
etzen 544
fruit 544
haven 544
machten 544
produktion 544
ti 544
Austrian 543
Day 543
Eines 543
Gesicht 543
Note 543
Ohne 543
aircraft 543
alist 543
chi@@ 543
corruption 543
haltung 543
recommend 543
shares 543
sprache 543
treat 543
weshalb 543
übernommen 543
Any 542
Bestandteil 542
Chamber 542
Inseln 542
Können 542
Landschaft 542
Market 542
Will 542
adequate 542
betont 542
conduct 542
dealt 542
dic@@ 542
draußen 542
ences 542
ließen 542
nam@@ 542
proud 542
reply 542
trägen 542
Federal 541
Führungs@@ 541
Innen 541
Wohl@@ 541
ett@@ 541
fen@@ 541
heat 541
wouldn 541
Absicht 540
Charles 540
Königreich 540
Letz@@ 540
Wo@@ 540
accounts 540
bildet 540
hair 540
herr@@ 540
mol@@ 540
proof 540
visible 540
05 539
700 539
GDP 539
Grundsätze 539
anbieten 539
auer 539
beaches 539
bewegt 539
edge 539
ize 539
pollution 539
walls 539
Forsch@@ 538
Mur@@ 538
andererseits 538
mach@@ 538
ordinary 538
precise 538
strengthening 538
unver@@ 538
verkauft 538
Ges@@ 537
chtet 537
install 537
intellectual 537
kli@@ 537
miss@@ 537
preis 537
sische 537
stic 537
westlichen 537
Breakfast 536
Einklang 536
Freunden 536
Karten 536
Summit 536
Werbung 536
arch@@ 536
ctions 536
einfacher 536
erschaffen 536
ete 536
rü@@ 536
tells 536
2012 535
Financial 535
Look 535
Stat@@ 535
addressed 535
aller@@ 535
ausschusses 535
dem@@ 535
depends 535
feed 535
kts 535
luxury 535
master 535
prepare 535
straße 535
update 535
Very 534
bung 534
determine 534
mus 534
naturally 534
renewable 534
substances 534
universal 534
är 534
Den@@ 533
Pla@@ 533
Teilnehmer 533
berühmten 533
betroffenen 533
birth 533
guaranteed 533
karte 533
secret 533
Kollege 532
Maßnahme 532
Mindest@@ 532
Parlament@@ 532
amounts 532
ball 532
empfehlen 532
eröffnet 532
fertig 532
launched 532
recognize 532
repeat 532
Charter 531
Emp@@ 531
Fernseh@@ 531
Grad 531
Nutzer 531
Tex@@ 531
ay@@ 531
binding 531
constant 531
delivered 531
ental 531
erzeugen 531
fei@@ 531
forth 531
ov@@ 531
previously 531
regionale 531
schwierigen 531
vertrau@@ 531
Bücher 530
Motor@@ 530
Noch 530
Prinzipien 530
Prodi 530
Winter 530
bekämpfen 530
laut 530
ming 530
puts 530
register 530
umzusetzen 530
untersuchen 530
Jede 529
Mark@@ 529
Saint 529
alisation 529
farm 529
gesetz@@ 529
gold 529
investieren 529
spring 529
wards 529
wissenschaftliche 529
Click 528
Landwirte 528
SS 528
Wirtschafts- 528
bestand 528
breite 528
compliance 528
delegation 528
emphasise 528
lab@@ 528
length 528
schließt 528
song 528
Before 527
Entwicklungsländer 527
Farb@@ 527
Kräfte 527
Rome 527
approximately 527
equally 527
kat@@ 527
kurzen 527
letztendlich 527
load 527
minim@@ 527
mod@@ 527
pre 527
tis 527
Anlagen 526
EM@@ 526
Gleichgewicht 526
Schaden 526
Schluss 526
deutsche 526
evolution 526
male 526
southern 526
tief 526
welchem 526
wers 526
Blut@@ 525
Organ@@ 525
Vil@@ 525
blind 525
dat@@ 525
einerseits 525
mb@@ 525
rising 525
vertre@@ 525
Inn 524
Kontext 524
Süden 524
Thus 524
alle@@ 524
beachten 524
experiment 524
organ@@ 524
shower 524
slightly 524
thereby 524
tritt 524
wesentliche 524
AL 523
Einstellung 523
Paper 523
Pic@@ 523
entscheidend 523
evaluation 523
perform 523
spezifischen 523
ungs 523
Kombination 522
Nummer 522
Zahlungs@@ 522
atz@@ 522
elling 522
error 522
ries 522
schie@@ 522
seat 522
seitens 522
tö@@ 522
vely 522
Klima 521
Recht@@ 521
Rules 521
Son@@ 521
Tages@@ 521
Ul@@ 521
Unternehmens 521
appeal 521
cell@@ 521
port@@ 521
protecting 521
spezifische 521
Empfehlung 520
Menschheit 520
Minutes 520
Schweden 520
Schönheit 520
amongst 520
appreciate 520
bom@@ 520
corner 520
dinner 520
höchsten 520
mitten 520
reception 520
sian 520
zunehmend 520
19. 519
Beifall 519
Both 519
Che@@ 519
Gewicht 519
Koordinierung 519
Militär@@ 519
Nahen 519
Voraussetzung 519
Völker 519
Wol@@ 519
addi@@ 519
behörde 519
eth@@ 519
frie@@ 519
liegenden 519
necessarily 519
representative 519
tierte 519
valid 519
Download 518
ED@@ 518
Is@@ 518
Vit@@ 518
befassen 518
bing 518
careful 518
holidays 518
ktes 518
motor 518
mö@@ 518
participants 518
rau@@ 518
uss 518
1993 517
Mars 517
Not@@ 517
Sohn 517
beschäftigen 517
disposal 517
entwicklung 517
getragen 517
grateful 517
involving 517
klein 517
offenen 517
outstanding 517
pattern 517
qualified 517
stro@@ 517
surrounded 517
system@@ 517
tain 517
worst 517
Alternative 516
Kann 516
Küste 516
Mittelpunkt 516
Mr. 516
Signal 516
Telefon 516
Terrasse 516
Verträge 516
awareness 516
entwickelte 516
expectations 516
gewonnen 516
ktiven 516
läu@@ 516
mutual 516
zieh@@ 516
Les@@ 515
Mexico 515
Regime 515
Sanktionen 515
ativ 515
gegen@@ 515
maschine 515
rati@@ 515
strategies 515
Bau 514
Einkommen 514
High@@ 514
Technology 514
asing 514
aussch@@ 514
decade 514
lake 514
match 514
rejected 514
trial 514
voraus@@ 514
zeige 514
zuzu@@ 514
46 513
Drogen@@ 513
Good 513
King 513
Ob 513
PPE 513
Pflicht 513
Zentral@@ 513
Zus@@ 513
adults 513
atz 513
bereiche 513
consists 513
dd@@ 513
hört 513
kosten@@ 513
mag@@ 513
oms 513
pose 513
suite 513
van@@ 513
Arab 512
Element 512
Lord 512
Punkten 512
Waren 512
arti@@ 512
bestimmen 512
druck 512
improvements 512
parallel 512
64 511
Aqu@@ 511
Erwartungen 511
Over 511
Pro 511
allo@@ 511
anda 511
existiert 511
ites 511
modell 511
pas@@ 511
passen 511
privacy 511
teach 511
wesen 511
44 510
Alliance 510
Industri@@ 510
Romania 510
Vertrags@@ 510
ausgesetzt 510
contemporary 510
erend 510
esses 510
fashion 510
intention 510
nennt 510
obligation 510
ol 510
recognise 510
tech 510
termin@@ 510
verlangt 510
11. 509
1991 509
AS 509
Institution 509
affairs 509
conflicts 509
dauert 509
entdeckt 509
mä@@ 509
sanctions 509
ual 509
visu@@ 509
1000 508
Delegation 508
Rel@@ 508
digt 508
kel 508
opinions 508
phrase 508
somewhat 508
sü@@ 508
tem@@ 508
trau@@ 508
120 507
Acc@@ 507
Kilometer 507
Wider@@ 507
dienste 507
erzeugt 507
factory 507
geschichte 507
highlight 507
lights 507
mas@@ 507
messages 507
registration 507
stern 507
tiny 507
transition 507
weiten 507
Dol@@ 506
Haben 506
absch@@ 506
anywhere 506
bares 506
brief 506
einrichtungen 506
hinzufügen 506
ops 506
orders 506
rechts@@ 506
requested 506
stem 506
yo@@ 506
Übereinkommen 506
и@@ 506
Orten 505
ater@@ 505
gewissen 505
herzlich 505
properties 505
verein@@ 505
ül@@ 505
Casino 504
Sho@@ 504
Sitz 504
Stra@@ 504
aktive 504
ath 504
bars 504
drop 504
hearing 504
incredibly 504
investments 504
optimal 504
theit 504
volume 504
weather 504
Klicken 503
Kredit@@ 503
Theorie 503
Währungs@@ 503
constructive 503
igung 503
relaxing 503
removed 503
runs 503
serves 503
sleep 503
staatliche 503
waters 503
Berücksichtigung 502
Bewusstsein 502
Deutsche 502
Mak@@ 502
Teilnahme 502
cel@@ 502
definiert 502
dene 502
herstellen 502
ly@@ 502
Berufs@@ 501
Dokumente 501
Sor@@ 501
connections 501
erei 501
fehlt 501
ite 501
kontrolle 501
oning 501
starten 501
stolz 501
weak@@ 501
wife 501
zeu@@ 501
Fischerei 500
Pflanzen 500
Polizei 500
Prin@@ 500
Spe@@ 500
System@@ 500
blu@@ 500
debates 500
increases 500
liste 500
prin@@ 500
soci@@ 500
stran@@ 500
sätze 500
uss@@ 500
voran@@ 500
21. 499
52 499
Absch@@ 499
Dadurch 499
Je@@ 499
Sar@@ 499
consultation 499
emerging 499
eten 499
extra@@ 499
irgendwo 499
missing 499
rapporteurs 499
solange 499
soli@@ 499
teaching 499
vorzu@@ 499
Cur@@ 498
Fern@@ 498
Find 498
Geräte 498
contents 498
hole 498
umfassenden 498
welfare 498
47 497
Manager 497
Standard@@ 497
behörden 497
compensation 497
hoher 497
ht 497
hängen 497
ish@@ 497
italienischen 497
jemanden 497
lus@@ 497
passengers 497
profession@@ 497
rie@@ 497
stick 497
Brazil 496
Konflikt 496
Spezi@@ 496
browser 496
denden 496
enter@@ 496
none 496
officials 496
saving 496
Glauben 495
Gol@@ 495
JavaScript 495
Labor 495
Ladies 495
Schi@@ 495
Trotz 495
Unterkunft 495
Vienna 495
Vom 495
ala 495
fläche 495
fordere 495
karten 495
lan 495
maintenance 495
ok 495
ora 495
origin@@ 495
struktur 495
turning 495
verdienen 495
vulnerable 495
Betriebs@@ 494
Hau@@ 494
PO@@ 494
Roman 494
afternoon 494
arm@@ 494
forum 494
hat@@ 494
hä@@ 494
kontrollieren 494
largely 494
meter 494
neg@@ 494
resulting 494
roads 494
teren 494
verschiedener 494
Normen 493
Sehenswürdigkeiten 493
Steuern 493
Struktur@@ 493
Weitere 493
bo 493
dig@@ 493
hilfe 493
invited 493
jün@@ 493
refugees 493
resolve 493
with@@ 493
zeichnen 493
Überzeugung 493
Gold 492
Haut 492
Schüler 492
Wandel 492
bet 492
cou@@ 492
count 492
erlebt 492
ffen 492
fies 492
stream 492
ungsprozess 492
unmittelbar 492
zweifellos 492
Büro 491
Faktoren 491
Himmel 491
Lag@@ 491
Lake 491
Nachfrage 491
Rau@@ 491
ager 491
articles 491
association 491
chn@@ 491
citizen 491
gener 491
listening 491
marks 491
systemen 491
Beach 490
Bus 490
Medizin 490
Times 490
bemüht 490
destination 490
ds@@ 490
inspired 490
mandate 490
organic 490
organisiert 490
techniques 490
wür@@ 490
Aussicht 489
Fel@@ 489
arrangements 489
blog 489
combating 489
heim@@ 489
ony 489
plastic 489
reise 489
selbst@@ 489
terrorist 489
Angriff 488
Card 488
Tom@@ 488
Women 488
bezug 488
definitely 488
führten 488
packages 488
straight 488
units 488
ursprünglichen 488
Genau 487
Modelle 487
On@@ 487
Palace 487
ep 487
extension 487
ez 487
inzwischen 487
reaching 487
sitz 487
ständige 487
u. 487
üh@@ 487
2. 486
Air@@ 486
Aufgrund 486
Bill 486
Despite 486
Gestaltung 486
Show 486
iges 486
kel@@ 486
output 486
satz@@ 486
Dre@@ 485
Film@@ 485
Maria 485
RE 485
aming 485
beantworten 485
effektiv 485
rasch 485
realistic 485
tief@@ 485
wild 485
Leitlinien 484
Veranstaltungen 484
ans@@ 484
defend 484
ministers 484
operators 484
ping 484
topic 484
Bab@@ 483
Ferner 483
Kulturen 483
Open@@ 483
Red@@ 483
Religion 483
ased 483
bekam 483
comply 483
frühen 483
gal@@ 483
imm@@ 483
involvement 483
reali@@ 483
versions 483
vieler 483
zig@@ 483
Ausnahme 482
Ham@@ 482
Ide@@ 482
Japanese 482
Pr@@ 482
Stimmen 482
Tal@@ 482
ange 482
conducted 482
nachzudenken 482
university 482
Gut 481
Internationalen 481
Kurz@@ 481
Typ 481
aling 481
angemessen 481
collaboration 481
doors 481
intensi@@ 481
invest 481
pfen 481
prakti@@ 481
sm 481
steigt 481
teams 481
technik 481
60@@ 480
Deswegen 480
Tit@@ 480
bike 480
chter@@ 480
decken 480
dungs@@ 480
institutionellen 480
lieber 480
pension 480
remarkable 480
stieg 480
suddenly 480
teilnehmen 480
treaty 480
Emissionen 479
Erinnerung 479
Fas@@ 479
Player 479
Ruhe 479
Sekunden 479
aufzunehmen 479
fig@@ 479
gedacht 479
hundert 479
recognised 479
ush@@ 479
west 479
öffentlich 479
Asyl@@ 478
PL@@ 478
Van 478
assure 478
competence 478
covers 478
frame 478
metal 478
reduzieren 478
stehende 478
58 477
Datenbank 477
Geschäft 477
Handel@@ 477
Industrie@@ 477
Nich@@ 477
Perspektive 477
Tieren 477
allgemein 477
communications 477
dachten 477
drink 477
erst@@ 477
hart 477
liability 477
natürliche 477
overcome 477
rail 477
rapidly 477
vermitteln 477
wünsche 477
ag 476
attractions 476
chair 476
convenient 476
generate 476
historische 476
qualität 476
ville 476
AV@@ 475
Kooperation 475
Verbesserungen 475
angesehen 475
charges 475
diverse 475
emphasis 475
jener 475
nehme 475
ond 475
paying 475
prefer 475
rap@@ 475
reserve 475
spoke 475
uli@@ 475
verstärkt 475
watching 475
Gegend 474
Kapitel 474
Mich@@ 474
Werk 474
aum 474
belief 474
boy 474
höchste 474
initi@@ 474
involve 474
legitimate 474
replace 474
rus@@ 474
.de 473
Geschwindigkeit 473
Hauptstadt 473
Maß 473
Nutz@@ 473
RO 473
amed 473
aufgefordert 473
but@@ 473
demonstrate 473
emergency 473
ethnic 473
intend 473
neun 473
phenomenon 473
poly@@ 473
robot 473
spra@@ 473
throw 473
trags 473
unden 473
11.@@ 472
CE@@ 472
Oper@@ 472
Rechts 472
Winter@@ 472
acted 472
asser@@ 472
criticism 472
divided 472
ehemaligen 472
ency 472
golf 472
kid 472
kürz@@ 472
lle 472
occur 472
proved 472
publi@@ 472
ran 472
signs 472
sofern 472
vorbereitet 472
wear 472
zero 472
ähnliche 472
Ausmaß 471
Book 471
Korruption 471
Nachfolgend 471
Nigeria 471
furniture 471
hil@@ 471
offices 471
scene 471
stens 471
trac@@ 471
verringern 471
zahl@@ 471
Anlage 470
Elektro@@ 470
Fort@@ 470
Glob@@ 470
Hostelsclub 470
Mir 470
USB 470
Videos 470
applicable 470
carrying 470
durchzuführen 470
everyday 470
ks@@ 470
obje@@ 470
patent 470
peoples 470
ration@@ 470
spoken 470
water@@ 470
Act 469
Tru@@ 469
Wander@@ 469
ausgesprochen 469
bericht 469
dert 469
lessons 469
präsentiert 469
quali@@ 469
raising 469
recommended 469
sight 469
tierten 469
ungser@@ 469
verhindert 469
whilst 469
Aktion 468
Check 468
Führ@@ 468
Hände 468
Kop@@ 468
Projekt@@ 468
River 468
S.@@ 468
Schauen 468
Wohlstand 468
durchführen 468
füllen 468
iPhone 468
liberalisation 468
locations 468
manufacturers 468
reserves 468
resource 468
verabschiedet 468
virtual 468
wä@@ 468
GB 467
Indian 467
Mad@@ 467
Perhaps 467
UNO 467
foundation 467
heben 467
heutzutage 467
launch 467
nungs@@ 467
• 467
Auftrag 466
Gebrauch 466
Kyoto 466
Mobilität 466
Umfeld 466
dos 466
expertise 466
fairly 466
female 466
fühlt 466
hielt 466
li 466
nein 466
preise 466
vorbei 466
zentralen 466
Arbeitsplätzen 465
Chancen 465
Halb@@ 465
Ministers 465
Netz@@ 465
Spitze 465
Straf@@ 465
aktiven 465
glad 465
gliche 465
involves 465
kenn@@ 465
manager 465
tex@@ 465
verkehrs@@ 465
wave 465
Handeln 464
Mission 464
Tagung 464
dia 464
dollar 464
faith 464
fördert 464
gefördert 464
glob@@ 464
gründen 464
sau@@ 464
schei@@ 464
transportation 464
yed 464
yl@@ 464
Action 463
Agrarpolitik 463
Swedish 463
anybody 463
cies 463
designer 463
enth@@ 463
flat 463
fraud 463
gsten 463
ideale 463
kal@@ 463
latter 463
pla@@ 463
profile 463
requests 463
sorgt 463
speci@@ 463
stag@@ 463
stecken 463
val 463
virus 463
zw@@ 463
Mul@@ 462
Sach@@ 462
Shi@@ 462
Telefon@@ 462
Verbreitung 462
depending 462
gezwungen 462
grundsätzlich 462
happiness 462
intelligent 462
jährige 462
oned 462
push 462
sichtbar 462
sinnvoll 462
zeigte 462
80@@ 461
Bühne 461
Designer 461
Partnern 461
Post 461
RI@@ 461
Ratsvorsitz 461
Wirtschaft@@ 461
discharge 461
erheblich 461
ersetzen 461
grade 461
hospital 461
housing 461
impression 461
minority 461
spanischen 461
teacher 461
welt@@ 461
1989 460
Einer 460
Fun@@ 460
Gemein@@ 460
Gespräche 460
Programmen 460
Ratspräsidentschaft 460
Stein@@ 460
TH@@ 460
Zoll@@ 460
aged 460
alized 460
bedroom 460
broken 460
conditioning 460
etr@@ 460
fach@@ 460
gh 460
heit@@ 460
herauszufinden 460
holt 460
klu@@ 460
lic 460
reiche 460
therapy 460
tischer 460
wiederholen 460
100@@ 459
72 459
Austausch 459
Gemeinde 459
Nachbarn 459
betrieben 459
compatible 459
dence 459
derer 459
erkennt 459
fran@@ 459
industri@@ 459
jenen 459
mode 459
owners 459
sorgfältig 459
viol@@ 459
Ange@@ 458
Ausstellung 458
Festlegung 458
Gast@@ 458
Großteil 458
Job 458
Mari@@ 458
Medien@@ 458
PHP 458
Radio 458
Ram@@ 458
Rule 458
Suite 458
Vorschlägen 458
Zwischen@@ 458
ac 458
facilitate 458
humanity 458
künftigen 458
resolved 458
versuche 458
wirtschaftlicher 458
TO@@ 457
aufnehmen 457
behaupten 457
desto 457
fur@@ 457
kraft@@ 457
migration 457
resolutions 457
websites 457
will@@ 457
Fernsehen 456
Kauf@@ 456
Ty@@ 456
Untersuchungen 456
aut 456
fix 456
fro@@ 456
gnissen 456
ned 456
serving 456
tori@@ 456
ump@@ 456
woh@@ 456
Außenpolitik 455
Cl@@ 455
Immobilien@@ 455
Konsequenzen 455
Schäden 455
cer 455
rt 455
räume 455
räumen 455
sho@@ 455
ön@@ 455
10.@@ 454
Einbeziehung 454
Gold@@ 454
afraid 454
bestätigen 454
beträgt 454
cutting 454
dasselbe 454
deals 454
dende 454
destruction 454
essi@@ 454
gebeten 454
generated 454
gerät 454
organisationen 454
organisieren 454
oul@@ 454
retten 454
setz@@ 454
statisti@@ 454
verurteilt 454
Är@@ 454
Bay 453
Kab@@ 453
MA 453
ards 453
battle 453
delighted 453
exceptional 453
grand@@ 453
leaves 453
proto@@ 453
twice 453
wächst 453
Kapital@@ 452
Verkauf 452
betreffenden 452
ehrt 452
einig 452
geleitet 452
gerichtet 452
identified 452
perfekt 452
preis@@ 452
resistance 452
rou@@ 452
sand 452
schnelle 452
stronger 452
suffer 452
taught 452
terrible 452
theme 452
BIP 451
Cat@@ 451
Gerechtigkeit 451
Rezeption 451
Serie 451
actively 451
audio 451
bedeut@@ 451
bequem 451
breiten 451
centres 451
contributions 451
dog 451
electric 451
fragt 451
gelassen 451
sil@@ 451
spiele 451
zog 451
Maybe 450
Plaza 450
Sind 450
Taiwan 450
Umgang 450
Verfügbarkeit 450
auto@@ 450
diert 450
entscheidende 450
forests 450
genügend 450
hoffentlich 450
imposed 450
nutz@@ 450
patterns 450
recommendation 450
schung 450
02 449
Christ@@ 449
Flash 449
Royal 449
Sozi@@ 449
Wald@@ 449
altet 449
angemessene 449
aufs 449
buffet 449
courage 449
erneu@@ 449
heutige 449
invite 449
mischen 449
prison 449
rat@@ 449
requirement 449
sparen 449
Augenblick 448
Doppel@@ 448
Katastrophe 448
Verteidigung 448
Wechsel@@ 448
engage 448
fic@@ 448
flying 448
freundliche 448
furnished 448
führende 448
multi 448
niedri@@ 448
q@@ 448
recogn@@ 448
relationships 448
sn@@ 448
tackle 448
trafficking 448
verbindet 448
Bedrohung 447
Darum 447
Extre@@ 447
News 447
Pil@@ 447
ausgezeichnete 447
bound 447
characteristics 447
ee@@ 447
fourth 447
hervor 447
impressive 447
passt 447
priv@@ 447
schem 447
sending 447
Charta 446
DA 446
Glas@@ 446
Komponenten 446
Link 446
Million 446
Support 446
Tür 446
Which 446
abgelehnt 446
choices 446
directives 446
ergriffen 446
herzustellen 446
ills 446
oh 446
Dem 445
Drittens 445
Fein@@ 445
SA 445
Safety 445
anschauen 445
beschränkt 445
confirmed 445
deswegen 445
faces 445
hö@@ 445
höheren 445
kill 445
parti@@ 445
sphere 445
urs 445
wa 445
ätz@@ 445
Ele@@ 444
Produ@@ 444
begannen 444
eres 444
gebiete 444
greif@@ 444
hren 444
hän@@ 444
ils 444
impor@@ 444
isen 444
lift 444
mali@@ 444
nung 444
remote 444
respected 444
sugar 444
visited 444
Abschnitt 443
Frei@@ 443
Get 443
Leistungs@@ 443
Projekten 443
Rob@@ 443
Strukturfonds 443
demonstrated 443
doctor 443
driver 443
erweitert 443
essen@@ 443
formation 443
früheren 443
functioning 443
interpre@@ 443
obtained 443
plays 443
roll 443
sahen 443
smoking 443
tested 443
tier@@ 443
tin@@ 443
vollständige 443
Kap@@ 442
Objekt 442
Via 442
aktivieren 442
ances 442
anim@@ 442
charming 442
chinesischen 442
dependent 442
finish 442
firstly 442
gert 442
gg@@ 442
gigen 442
lichsten 442
milk 442
nachhaltigen 442
rad 442
s.@@ 442
tiz@@ 442
wirksam 442
Brasilien 441
Freiheiten 441
Lim@@ 441
MEPs 441
PDF 441
Rio 441
Trau@@ 441
Wur@@ 441
cast 441
cc@@ 441
duc@@ 441
gerufen 441
grew 441
hall 441
heritage 441
linken 441
normalen 441
operational 441
regularly 441
remaining 441
stance 441
unterscheiden 441
Apartment 440
Sau@@ 440
Schlüssel 440
Valley 440
alive 440
arguments 440
army 440
bewer@@ 440
dens 440
ehen 440
favorite 440
formal 440
frag@@ 440
functional 440
hervorheben 440
joined 440
leb@@ 440
mix 440
satzes 440
selling 440
somewhere 440
Ansichten 439
Hans 439
Israeli 439
Jean 439
Located 439
Mangel 439
Mod@@ 439
ansch@@ 439
assume 439
dreht 439
gefallen 439
gewährt 439
herrscht 439
hostels 439
lab 439
letztlich 439
northern 439
vorgenommen 439
asi@@ 438
assist 438
begrenzt 438
bought 438
cultures 438
dness 438
dé@@ 438
ehrlich 438
ening 438
filled 438
gent@@ 438
jo 438
klaren 438
ney 438
parliaments 438
restrictions 438
selten 438
spartner 438
tari@@ 438
thin 438
tre 438
wn@@ 438
Enjoy 437
Fan@@ 437
HI@@ 437
Kunde 437
absor@@ 437
catch 437
confirm 437
dal 437
exclusively 437
für@@ 437
ham@@ 437
lern 437
neuesten 437
ont 437
reported 437
wettbewerbs@@ 437
willkommen 437
zusammenarbeiten 437
zusätzlichen 437
.org 436
Einkaufs@@ 436
Facebook 436
Lebensmittel 436
Strom 436
Wird 436
assets 436
automatic 436
eastern 436
effectiveness 436
gratulieren 436
id@@ 436
intelligence 436
neuro@@ 436
nur@@ 436
sien 436
spi@@ 436
steuern 436
surely 436
versuchte 436
weren 436
Bucht 435
Geschäfte 435
IR@@ 435
Justiz 435
Kle@@ 435
Kra@@ 435
Polish 435
ard@@ 435
beeinflussen 435
kette 435
lim@@ 435
lokale 435
m2 435
ologen 435
relative 435
riesige 435
sichere 435
solches 435
sustainability 435
Gang 434
Identi@@ 434
Je 434
Schwei@@ 434
Spar@@ 434
Ziffer 434
ables 434
chem@@ 434
comple@@ 434
def@@ 434
fundament@@ 434
ind 434
nde 434
ray 434
ri 434
separ@@ 434
shift 434
tun@@ 434
č@@ 434
03 433
160 433
Congress 433
Drittländern 433
Harmonisierung 433
KMU 433
Respekt 433
Theater 433
USD 433
collabor@@ 433
deeply 433
expert 433
homes 433
maintained 433
makers 433
nütz@@ 433
raw 433
respective 433
satisfied 433
spot 433
subjects 433
untersucht 433
Förder@@ 432
Kanada 432
NL 432
Nic@@ 432
Out@@ 432
Ther@@ 432
Tourismus 432
anlagen 432
arrived 432
bekannte 432
buch 432
creativity 432
distributed 432
fizierung 432
handel 432
konzentriert 432
labor 432
nahezu 432
occasion 432
partly 432
rare 432
robots 432
schwer@@ 432
sicht@@ 432
steuer@@ 432
AR 431
Altstadt 431
Generationen 431
IF@@ 431
Live 431
SMEs 431
afford 431
east 431
entwurf 431
führer 431
luss@@ 431
pain 431
seln 431
soil 431
usual 431
weak 431
zun@@ 431
Übereinstimmung 431
Dass 430
Einwanderung 430
Mitgefühl 430
agen 430
default 430
dieren 430
elsewhere 430
gallery 430
license 430
schü@@ 430
sichtlich 430
staat 430
taten 430
tioning 430
trend 430
umgeben 430
Band 429
Beiträge 429
Budget 429
Gener@@ 429
Sun@@ 429
abuse 429
begrüßt 429
contrast 429
ello 429
gendes 429
künftig 429
legte 429
lists 429
pack@@ 429
quarter 429
spon@@ 429
sprogramm 429
steh@@ 429
sä@@ 429
umin@@ 429
vir@@ 429
Änderungsanträgen 429
Anfragen 428
Does 428
Feld 428
Ganz 428
Gentoo 428
Gest@@ 428
Regierungskonferenz 428
Situationen 428
ace 428
begins 428
blin@@ 428
communicate 428
customs 428
glaubt 428
heißen 428
kap@@ 428
kle@@ 428
lehr@@ 428
mo 428
printing 428
serviert 428
sozialer 428
tan 428
ändert 428
86 427
Asien 427
Bahnhof 427
Front 427
Gegenstand 427
Kommunikations@@ 427
Leg@@ 427
Mut 427
Scho@@ 427
Verringerung 427
Vorgehen 427
ail@@ 427
betreiben 427
elec@@ 427
generations 427
i.e. 427
pursue 427
92 426
Applause 426
Cli@@ 426
Dublin 426
Einheit 426
Feu@@ 426
Kern 426
Reform@@ 426
Verfassungs@@ 426
Whether 426
biological 426
doctors 426
eit 426
geprüft 426
groß@@ 426
investors 426
liberal 426
regul@@ 426
sorts 426
strict 426
AU@@ 425
Blog 425
Copenhagen 425
Hall 425
Lernen 425
Mah@@ 425
Objekte 425
Special 425
arrive 425
buchen 425
dio@@ 425
driven 425
einhei@@ 425
parks 425
stung 425
surprised 425
tran@@ 425
ziele 425
о@@ 425
Ali@@ 424
Kranken@@ 424
Licht@@ 424
Nov@@ 424
Ware 424
Werkzeuge 424
ausgeschlossen 424
break@@ 424
dates 424
entertainment 424
förder@@ 424
inge 424
kümmern 424
lock 424
maschinen 424
normally 424
schönsten 424
weisung 424
Back@@ 423
Gericht 423
Pläne 423
Schn@@ 423
equivalent 423
genetic 423
nit@@ 423
pot 423
refle@@ 423
saved 423
selber 423
shi@@ 423
spa@@ 423
strange 423
toll 423
verleihen 423
weite 423
windows 423
Mem@@ 422
Sel@@ 422
Such@@ 422
drivers 422
hervorragende 422
log 422
mouth 422
ologisch 422
passenger 422
rechtliche 422
Fischer 421
Framework 421
Fü@@ 421
Haiti 421
ING 421
Off@@ 421
Rou@@ 421
Viertel 421
Wes@@ 421
Zy@@ 421
aly@@ 421
beziehungen 421
deb@@ 421
dishes 421
eignet 421
einheitlichen 421
fee 421
gap 421
kehr@@ 421
leistung 421
plat@@ 421
reli@@ 421
schlechte 421
studio 421
submit 421
wiederholt 421
übernimmt 421
Arab@@ 420
Bemerkungen 420
California 420
Format 420
IP@@ 420
MB@@ 420
Power@@ 420
Soldaten 420
Tar@@ 420
Tier 420
alisieren 420
classic 420
cle 420
gebe 420
lauf 420
mid 420
mächti@@ 420
notes 420
nützlich 420
preparing 420
präsentieren 420
ron 420
seemed 420
ticket 420
toler@@ 420
vorsch@@ 420
--@@ 419
Belgium 419
Bom@@ 419
Dafür 419
Fac@@ 419
Funds 419
Munich 419
Verlust 419
abroad 419
absence 419
acks 419
ausschuß 419
außerordentlich 419
credibility 419
dacht 419
dry 419
frequently 419
iling 419
konfrontiert 419
magic 419
merk@@ 419
preparation 419
satisfaction 419
smo@@ 419
substance 419
succeed 419
verdient 419
54 418
Jahrzehnten 418
Old 418
Staat@@ 418
ail 418
allzu 418
aussprechen 418
besorgt 418
bre 418
channel 418
dam@@ 418
drücken 418
ele 418
nis 418
offene 418
sing@@ 418
spann@@ 418
thy 418
toward 418
versorgung 418
wohnen 418
älter 418
06 417
Abkommens 417
Alb@@ 417
Ari@@ 417
Ker@@ 417
Kurs 417
Medikamente 417
Question 417
Stellung 417
Tausende 417
Todes@@ 417
Without 417
bemühen 417
berechtigt 417
bereitet 417
beschrieben 417
britische 417
einzusetzen 417
equi@@ 417
ex 417
gli@@ 417
kräfte 417
layer 417
owner 417
reaction 417
trag 417
verteilt 417
Apple 416
EF@@ 416
Hostels 416
Rumänien 416
SP 416
Sein 416
adopting 416
alities 416
amm 416
digung 416
dokum@@ 416
eds 416
explained 416
hypo@@ 416
iler 416
regulatory 416
reject 416
täglichen 416
yers 416
Arzt 415
Australia 415
Cri@@ 415
Formular 415
Mö@@ 415
Planung 415
Plattform 415
Prote@@ 415
Soviet 415
Wesentlichen 415
bits 415
bun@@ 415
en-@@ 415
follows 415
gangs 415
großartige 415
guess 415
non-@@ 415
videos 415
wechsel 415
Flo@@ 414
Jan@@ 414
Schwer@@ 414
ami@@ 414
beglückwünschen 414
contracts 414
educational 414
oni 414
productive 414
rieben 414
still@@ 414
zuständigen 414
A4 413
Big 413
Lö@@ 413
Minderheiten 413
Politiken 413
Sitz@@ 413
Stadtzentrum 413
User 413
asses 413
committees 413
disabled 413
filter 413
fügen 413
nehmer 413
returned 413
sorry 413
taxation 413
terin 413
wasser 413
Andere 412
Ausführungen 412
Besonders 412
Plenum 412
Vorschlags 412
aw@@ 412
demanding 412
eiten 412
fügt 412
gelesen 412
geltenden 412
gere@@ 412
iner 412
liefert 412
ologischen 412
phones 412
radi@@ 412
residence 412
servi@@ 412
verbreitet 412
vorge@@ 412
zunehmen 412
Ah@@ 411
Amendments 411
Denk@@ 411
NGOs 411
THE 411
Wind 411
Wit@@ 411
Zimmern 411
Zugriff 411
ausgezeichneten 411
channels 411
encouraging 411
farming 411
glück@@ 411
heads 411
jegliche 411
klar@@ 411
lösung 411
markt@@ 411
mess@@ 411
minorities 411
ober@@ 411
peri@@ 411
ruhigen 411
solid 411
suppliers 411
zukünftigen 411
27@@ 410
Ausgangspunkt 410
Croatia 410
Dienstleistungs@@ 410
Given 410
Organe 410
Quelle 410
Rotary 410
Sec@@ 410
Wirtschaftswachstum 410
barriers 410
billi@@ 410
collect 410
derartige 410
erhältlich 410
gehe 410
gere 410
ligh@@ 410
lten 410
ongoing 410
surprise 410
traf 410
unterschiedlich 410
va@@ 410
0er 409
Ag@@ 409
Ausgabe 409
Dro@@ 409
Francisco 409
Gerichtshof 409
Gästen 409
Kas@@ 409
Marketing 409
Marktes 409
Nehmen 409
Nice 409
Regen@@ 409
Strategy 409
Veranstaltung 409
Verbot 409
bislang 409
copyright 409
correctly 409
depend 409
leichter 409
sensible 409
verw@@ 409
vieles 409
visa 409
36@@ 408
Arbeitsmarkt 408
Hey 408
Lern@@ 408
Training 408
accident 408
atur@@ 408
beraten 408
betrieb@@ 408
entieren 408
hier@@ 408
marquis 408
noted 408
notwendige 408
produkte 408
recorded 408
savings 408
scheme 408
wu@@ 408
zugunsten 408
Wesen 407
angegebenen 407
crimes 407
entsch@@ 407
könnt 407
lunch 407
mistake 407
mouse 407
promise 407
rig@@ 407
script 407
survive 407
zung 407
Erzeugnisse 406
Est@@ 406
Lab@@ 406
New@@ 406
Software@@ 406
constitu@@ 406
difficulty 406
enorme 406
gän@@ 406
inten@@ 406
iso@@ 406
liked 406
maxim@@ 406
struggle 406
tausende 406
youth 406
äußern 406
Angebote 405
Evolution 405
Fahrzeuge 405
Kategorie 405
Kontrollen 405
Mark 405
Page 405
Rom 405
Tau@@ 405
bath 405
ented 405
esc@@ 405
fi 405
freedoms 405
gesp@@ 405
grant 405
judicial 405
liert 405
mi 405
proposing 405
pt 405
umzu@@ 405
winning 405
Atlantic 404
Have 404
Reisen 404
Waren@@ 404
Wien 404
armen 404
bat 404
derung 404
erleichtern 404
ersetzt 404
famili@@ 404
geschickt 404
importantly 404
presents 404
root 404
schnell@@ 404
tickets 404
Brand@@ 403
College 403
Klimaanlage 403
Kü@@ 403
Science 403
Shop 403
Trop@@ 403
ament@@ 403
breit@@ 403
centuries 403
considering 403
drehen 403
e.@@ 403
ero 403
gkeits@@ 403
ily 403
individuelle 403
proposes 403
shed 403
stopped 403
trained 403
transactions 403
Bahn 402
Bemerkung 402
Beratung 402
Box 402
Chinas 402
Energien 402
Kreativität 402
Lang@@ 402
Report 402
Tan@@ 402
Tim@@ 402
Völker@@ 402
Werke 402
award 402
castle 402
component 402
entscheidender 402
erfolgreiche 402
immigrants 402
iting 402
passion 402
teilung 402
Black 401
Flugzeug 401
Fluss 401
Friday 401
Luxembourg 401
Minute 401
Pact 401
Roh@@ 401
Wein 401
alistischen 401
armed 401
aufgebaut 401
definieren 401
disasters 401
entschlossen 401
fir@@ 401
froh 401
handle 401
identi@@ 401
indicated 401
itäten 401
justified 401
movements 401
stete 401
umgehen 401
utz@@ 401
ände 401
Führer 400
Konsens 400
Schei@@ 400
beigetragen 400
bezahlt 400
cian 400
declaration 400
determination 400
e.g. 400
handling 400
interpretation 400
maintaining 400
oc@@ 400
sach@@ 400
unds 400
vessels 400
GN@@ 399
Northern 399
Pool 399
Transport@@ 399
Use 399
Würde 399
Zielen 399
accompanied 399
antworten 399
auff@@ 399
dankbar 399
inflation 399
krise 399
minds 399
newly 399
zahl 399
zellen 399
Aut@@ 398
Differ@@ 398
Eu@@ 398
Kriegs@@ 398
Monetary 398
Ok@@ 398
Procedure 398
Schwerpunkt 398
Selbstverständlich 398
Tat@@ 398
aner 398
beeinflusst 398
bestimmter 398
colors 398
dent 398
direkten 398
erinnere 398
früh 398
geschafft 398
leben@@ 398
leisure 398
orial 398
than@@ 398
thri@@ 398
ursprünglich 398
ös@@ 398
Balkans 397
Bulgaria 397
Hohen 397
Inv@@ 397
Jahres@@ 397
Kla@@ 397
Poly@@ 397
Redner 397
Roll@@ 397
Vereinbarungen 397
Wünsche 397
aussieht 397
bles 397
describe 397
dignity 397
installiert 397
ny 397
trouble 397
widely 397
zü@@ 397
überrascht 397
Armee 396
Besorgnis 396
Bildern 396
Drei@@ 396
Egypt 396
Gefahren 396
IC 396
Neben@@ 396
Reduzierung 396
declared 396
effizient 396
enting 396
erhielt 396
ernsthaft 396
exception 396
excessive 396
gained 396
großem 396
igh@@ 396
lik@@ 396
mathemati@@ 396
moments 396
nunmehr 396
ola 396
wirk@@ 396
zin@@ 396
Berg 395
Java 395
Poker 395
Robo@@ 395
beruht 395
characters 395
dynam@@ 395
einfach@@ 395
gering 395
geräte 395
hung 395
individuellen 395
library 395
müsste 395
rational 395
sab@@ 395
spre@@ 395
tra 395
united 395
ziel@@ 395
Cyprus 394
Gewi@@ 394
Skype 394
Stoffe 394
ando 394
ani 394
birds 394
command 394
counter 394
emotional 394
entr@@ 394
erstes 394
heating 394
hinweg 394
kr@@ 394
kungen 394
somehow 394
tionally 394
tobacco 394
Ã 394
Analy@@ 393
Award 393
Des 393
Portuguese 393
Satz 393
Trotzdem 393
Vis@@ 393
competent 393
einzigartige 393
funktion@@ 393
impose 393
issued 393
nevertheless 393
pen 393
richtet 393
tierung 393
wohl@@ 393
а@@ 393
AP@@ 392
Hafen 392
MIT 392
Nachbar@@ 392
Stärke 392
berichten 392
beschäf@@ 392
bilateral 392
cuts 392
enge 392
euer 392
kennt 392
kung 392
occasions 392
radical 392
stration 392
verantwortungs@@ 392
wen 392
56 391
Ausführung 391
BO@@ 391
Gerade 391
Kontinent 391
Neue 391
Quar@@ 391
Strom@@ 391
Tak@@ 391
Zusatz@@ 391
angefangen 391
bergen 391
chern 391
d.h. 391
dul@@ 391
gemeinschaftlichen 391
gestaltet 391
hidden 391
interior 391
plenary 391
plenty 391
switch 391
ually 391
wand@@ 391
wol@@ 391
ón 391
3,@@ 390
3. 390
Konflikte 390
Under 390
Woh@@ 390
\ 390
abgestimmt 390
anen 390
arbei@@ 390
dein 390
dischen 390
loved 390
lte 390
noticed 390
stammt 390
ua 390
04 389
Bahn@@ 389
Budgets 389
Food 389
Individu@@ 389
Islamic 389
Log@@ 389
Marke 389
Rus@@ 389
Tab@@ 389
Waffen@@ 389
Zwecke 389
accurate 389
agi@@ 389
ases 389
forschung 389
jud@@ 389
kg 389
losses 389
p.m. 389
professionals 389
russischen 389
sicheren 389
sie@@ 389
sole 389
vorhandenen 389
vorschriften 389
wirkliche 389
zäh@@ 389
Ding 388
Gemeinschaften 388
Kosten@@ 388
Optionen 388
Protection 388
Schlussfolgerungen 388
TO 388
Traum 388
Veröffentlichung 388
Welcome 388
believed 388
clubs 388
combine 388
crazy 388
deli@@ 388
din 388
elektronischen 388
eless 388
ergibt 388
free@@ 388
halb 388
ichte 388
inner@@ 388
input 388
kla@@ 388
regarded 388
sees 388
sers 388
sin 388
stored 388
studied 388
succ@@ 388
traditionelle 388
vable 388
visiting 388
öse 388
с@@ 388
88 387
Baltic 387
Bö@@ 387
Church 387
EU@@ 387
Garantie 387
NI 387
Prozesse 387
Verk@@ 387
applying 387
decisive 387
dest@@ 387
dining 387
finanziert 387
gelei@@ 387
hinein 387
kolle@@ 387
leh@@ 387
müssten 387
nachzu@@ 387
tigte 387
zulassen 387
í 387
53 386
Abhängigkeit 386
Beschlüsse 386
Drittel 386
Fal@@ 386
Hong 386
Real 386
Rund@@ 386
Verletzung 386
Vorlage 386
actors 386
atten@@ 386
beteiligen 386
cash 386
direkte 386
grenzen 386
habt 386
irre@@ 386
nec@@ 386
prosperity 386
ret@@ 386
roots 386
settlement 386
tiere 386
trends 386
voc@@ 386
wahren 386
ée 386
Anstieg 385
Miss@@ 385
Putin 385
adapt 385
appearance 385
außen 385
bedrooms 385
bestehende 385
blocks 385
constitutional 385
dahin 385
ey@@ 385
films 385
globalisation 385
grown 385
parliament 385
proc@@ 385
spa 385
umsetzen 385
vin@@ 385
waffen 385
worthy 385
17. 384
59 384
Chem@@ 384
Faktor 384
Gemeinden 384
König 384
Las 384
Maastricht 384
Power 384
Vietnam 384
ausgerichtet 384
bekämpfung 384
cable 384
classes 384
concluded 384
correc@@ 384
einbezogen 384
explanation 384
immer@@ 384
mar 384
prev@@ 384
pur@@ 384
rain 384
replaced 384
stru@@ 384
suggested 384
89 383
Browser 383
Sektoren 383
Solar@@ 383
Structural 383
clu@@ 383
dorf 383
expansion 383
feu@@ 383
hardware 383
illegalen 383
index 383
info 383
lenken 383
ologische 383
s. 383
tier 383
versichern 383
villages 383
51 382
Bag@@ 382
Glaubwürdigkeit 382
Mün@@ 382
SC@@ 382
Sit@@ 382
Through 382
Websites 382
ahn@@ 382
camp 382
dieselbe 382
gige 382
keys 382
nutzt 382
owned 382
reform@@ 382
sand@@ 382
schlag 382
sozi@@ 382
tlicher 382
unfair 382
verehrte 382
vorlegen 382
worry 382
Ab 381
Airbus 381
Ambiente 381
Bank@@ 381
Foto@@ 381
Geschäft@@ 381
Phänomen 381
Would 381
attri@@ 381
bling 381
director 381
gespeichert 381
marine 381
mes@@ 381
occurred 381
pure 381
tausend 381
uted 381
wechsel@@ 381
Übersetzung 381
überein 381
überwinden 381
Eigentum 380
Mrd. 380
Network 380
Sunday 380
alisierten 380
anwenden 380
chti@@ 380
domain 380
erkannt 380
facility 380
ino@@ 380
ists 380
lam@@ 380
magazine 380
maß@@ 380
nes 380
para 380
politisches 380
solely 380
stimm@@ 380
tie 380
5. 379
Bir@@ 379
Cop@@ 379
Psych@@ 379
Should 379
Sommer@@ 379
Spielen 379
Teams 379
Virus 379
Widerspruch 379
Within 379
ador 379
anhand 379
arian 379
concepts 379
division 379
falsche 379
inmitten 379
innov@@ 379
keinem 379
läßt 379
nen@@ 379
performed 379
punkte 379
ständi@@ 379
subsidiarity 379
wachsenden 379
ücken 379
COM 378
Gefängnis 378
Hier@@ 378
Park@@ 378
Praktiken 378
Termin@@ 378
Tests 378
Tonnen 378
Zivilgesellschaft 378
compassion 378
dargestellt 378
erhebliche 378
lob@@ 378
sin@@ 378
strategischen 378
tory 378
Aktion@@ 377
Bestellung 377
Cho@@ 377
Executive 377
Go 377
Kampagne 377
Malta 377
Politik@@ 377
Project 377
Stiftung 377
Twitter 377
Verkehr@@ 377
Wind@@ 377
afrikanischen 377
auftreten 377
aufzubauen 377
ausgeführt 377
betra@@ 377
department 377
depth 377
erklärte 377
formul@@ 377
irgend@@ 377
lined 377
ose 377
pt@@ 377
read@@ 377
schu@@ 377
teste 377
verkehrs 377
verstärken 377
Assi@@ 376
EM 376
Person@@ 376
Preisen 376
TR@@ 376
arities 376
boot 376
conf@@ 376
courts 376
engaged 376
er-@@ 376
gebieten 376
gesellschaften 376
surroundings 376
traditions 376
unity 376
uting 376
veränder@@ 376
wur@@ 376
wussten 376
Dauer 375
Friedens@@ 375
Hil@@ 375
Potenzial 375
Pul@@ 375
Rö@@ 375
Schlag@@ 375
Sin@@ 375
Staates 375
WC 375
cket 375
contacts 375
dimensions 375
eingehalten 375
erweitern 375
faßt 375
gehend 375
gio 375
iled 375
mitteilen 375
photo@@ 375
reduziert 375
rif@@ 375
vertrag 375
wert@@ 375
whereas 375
Belgien 374
Dat@@ 374
Ebenen 374
Innovationen 374
Mitgliedschaft 374
Positionen 374
Wachstums@@ 374
Werbe@@ 374
Zentralbank 374
arbeiteten 374
beenden 374
college 374
deficit 374
designs 374
diagno@@ 374
folge 374
hear@@ 374
lovely 374
militärische 374
nar@@ 374
nights 374
nissen 374
percentage 374
spät 374
spüren 374
stages 374
vis 374
well@@ 374
zukommen 374
Überlegungen 374
änden 374
ökonomischen 374
4. 373
Adam 373
Bru@@ 373
Erholung 373
Marina 373
Mitarbeitern 373
Systemen 373
anwesend 373
colour 373
complexity 373
conver@@ 373
feels 373
fon@@ 373
gestellten 373
inclusion 373
periods 373
philosophy 373
rot@@ 373
sely 373
stück 373
topics 373
wirtschaftlich 373
Boot 372
Hungarian 372
Rab@@ 372
SV 372
Top 372
Werkzeug 372
binden 372
bü@@ 372
etes 372
fers 372
ffs 372
herum@@ 372
itation 372
mittleren 372
ni 372
ore@@ 372
oured 372
preventing 372
prime 372
pä@@ 372
spectacular 372
techn@@ 372
tours 372
ttern 372
typ@@ 372
Augen@@ 371
Avi@@ 371
BSE 371
Dep@@ 371
Effekt 371
Firmen@@ 371
Kön@@ 371
Schlafzimmer 371
Three 371
Tibet 371
cooperate 371
covering 371
designers 371
fewer 371
firms 371
flights 371
fs@@ 371
gene@@ 371
griffen 371
inde@@ 371
recognized 371
reiten 371
renovated 371
setzte 371
täts@@ 371
zusehen 371
ütz@@ 371
03@@ 370
Aussage 370
Christmas 370
Mol@@ 370
Nation 370
Nos 370
Plus 370
Presse 370
Zug 370
abe 370
appointed 370
ativ@@ 370
desired 370
emen 370
obstacles 370
pull 370
severe 370
surgery 370
tea 370
täten 370
upper 370
vorzulegen 370
Badezimmer 369
Bewer@@ 369
C. 369
Deutschen 369
GPS 369
Kri@@ 369
Legal 369
Mei@@ 369
PR@@ 369
Prozesses 369
Schreiben 369
Wald 369
Zeitung 369
Zer@@ 369
aben 369
enhance 369
erwähnen 369
geschäf@@ 369
grenze 369
hardly 369
miss 369
proven 369
referendum 369
uring 369
wald 369
Ärzte 369
A. 368
Alexander 368
Gau@@ 368
Häuser 368
Komm@@ 368
Laden 368
Muslim 368
Schiff@@ 368
Verlauf 368
Verteilung 368
alisiert 368
antes 368
artistic 368
conventional 368
conversation 368
coun@@ 368
davor 368
duties 368
federal 368
islands 368
linge 368
mitglieder 368
plätze 368
rechnen 368
settings 368
shadow 368
solved 368
sur 368
е@@ 368
Agriculture 367
Anbieter 367
Arbeitsplatz 367
Mac 367
Wirk@@ 367
alli@@ 367
beru@@ 367
bis@@ 367
constitution 367
diplom@@ 367
eingereicht 367
erfolgreichen 367
französische 367
geboten 367
gehabt 367
grad 367
greatly 367
honest 367
kun@@ 367
ope 367
painting 367
sla@@ 367
surprising 367
symbol 367
voluntary 367
wechseln 367
yr@@ 367
ück@@ 367
15. 366
Europol 366
München 366
Sollten 366
Vari@@ 366
Wohnung 366
basi@@ 366
bright 366
dev@@ 366
ential 366
examine 366
existieren 366
flows 366
gelt 366
genauer 366
izi@@ 366
losing 366
nummer 366
ped 366
penalty 366
verteidigen 366
zentr@@ 366
überprüft 366
Ant@@ 365
App@@ 365
Geo@@ 365
Hamas 365
Interessen@@ 365
Keine 365
Music 365
TS 365
Tätigkeiten 365
aside 365
behaviour 365
boys 365
drin@@ 365
empty 365
freut 365
ham 365
hi 365
high-@@ 365
isation 365
langer 365
letters 365
orts 365
senken 365
wege 365
zwingen 365
ñ@@ 365
Bin@@ 364
Einstellungen 364
Express 364
Hö@@ 364
Insbesondere 364
Pun@@ 364
Space 364
UC@@ 364
ativer 364
bone 364
cious 364
enabled 364
gefähr@@ 364
kreis 364
küh@@ 364
nd 364
packaging 364
regardless 364
subsidies 364
tei@@ 364
toren 364
A3@@ 363
Buchung 363
Gesam@@ 363
Kapital 363
Kong 363
Leidenschaft 363
Manche 363
Operation 363
Produktion@@ 363
abilities 363
ado@@ 363
appe@@ 363
banking 363
collected 363
deck@@ 363
eht 363
fahrer 363
gemeinschaft 363
inklusive 363
AC 362
Bereitstellung 362
Erzeu@@ 362
Experiment 362
Gewährleistung 362
HO@@ 362
Händen 362
LA 362
Märkten 362
Sicherung 362
beendet 362
degrees 362
documentation 362
ferner 362
maritime 362
pet 362
ride 362
suggests 362
supplies 362
verstehe 362
versteht 362
2.0 361
Anlass 361
Hä@@ 361
OR 361
Tem@@ 361
Zivil@@ 361
aufbauen 361
aush@@ 361
betreffend 361
briefly 361
constitute 361
deut@@ 361
differently 361
digitalen 361
electrical 361
geraten 361
gon@@ 361
inhabitants 361
lers 361
lesson 361
lichkeits@@ 361
logical 361
magnificent 361
mangel@@ 361
manu@@ 361
pair 361
productivity 361
tels 361
xes 361
zukünftige 361
ía 361
C5 360
Darstellung 360
Exchange 360
Holiday 360
Investitions@@ 360
Karriere 360
Manchmal 360
anymore 360
arise 360
ausgehen 360
decline 360
erie 360
gebung 360
iniert 360
leg 360
niveau 360
sogenannten 360
sson 360
super 360
tou@@ 360
trock@@ 360
ums@@ 360
zugrunde 360
Blo@@ 359
Bou@@ 359
Gaza 359
Gerichte 359
ading 359
appeared 359
bereichen 359
dische 359
endet 359
exports 359
funded 359
letz@@ 359
manufacturer 359
mas 359
ow 359
poll@@ 359
poorest 359
popul@@ 359
pression 359
rant 359
reifen 359
ruhig 359
schö@@ 359
sovereignty 359
sprach@@ 359
verboten 359
verwende 359
vice 359
weltweite 359
wonach 359
20th 358
AD 358
AN 358
Beg@@ 358
CF@@ 358
Gut@@ 358
Meg@@ 358
Rap@@ 358
Tip 358
adult 358
belong 358
continuous 358
description 358
destroyed 358
esti@@ 358
fascinating 358
frü@@ 358
hör@@ 358
istisch 358
kontrolliert 358
pot@@ 358
receiving 358
schule 358
shipping 358
songs 358
ständen 358
teln 358
tual 358
ungsverfahren 358
ury 358
ET 357
Gründung 357
Gö@@ 357
Kommissions@@ 357
Main 357
Mini@@ 357
Pau@@ 357
SE 357
Webseiten 357
appar@@ 357
cement 357
dere 357
digitale 357
entfernen 357
gelingt 357
healthcare 357
istic 357
kompet@@ 357
luss 357
nehm@@ 357
revi@@ 357
tough 357
valley 357
wander@@ 357
12.@@ 356
18. 356
Dusche 356
Finanzkrise 356
Inst@@ 356
Monday 356
atively 356
bedeutende 356
bs@@ 356
desk 356
directed 356
estimated 356
festival 356
human@@ 356
ici@@ 356
komp@@ 356
notion 356
perfekte 356
politi@@ 356
quotas 356
researchers 356
significance 356
sw@@ 356
tauchen 356
vollständigen 356
wunderschönen 356
zahlung 356
zerstört 356
überlassen 356
AP 355
Adri@@ 355
Cou@@ 355
Deb@@ 355
Filme 355
Golf@@ 355
Meinungs@@ 355
Prague 355
Will@@ 355
anzunehmen 355
argue 355
ax@@ 355
balcony 355
deckt 355
din@@ 355
gefährlich 355
gestattet 355
ital 355
musical 355
obliged 355
representation 355
rift 355
sequ@@ 355
ssig 355
threats 355
transform@@ 355
tries 355
Erst 354
Kriminalität 354
Mes@@ 354
Thursday 354
ader 354
anten@@ 354
bird 354
cky 354
corresponding 354
druck@@ 354
dürfte 354
genannte 354
gran@@ 354
installieren 354
kern 354
oriented 354
praktische 354
prop@@ 354
restore 354
thi@@ 354
unverzüglich 354
vermutlich 354
wirft 354
Betra@@ 353
Fi 353
Fleisch 353
Hinweise 353
Physi@@ 353
Point 353
aches 353
angepasst 353
bild@@ 353
eigh@@ 353
exact 353
gesetzten 353
grünen 353
label 353
liger 353
schaff@@ 353
tennis 353
4,@@ 352
Betrag 352
Blue 352
DS@@ 352
Fon@@ 352
Risiko@@ 352
Terror@@ 352
angebracht 352
aqu@@ 352
ator@@ 352
blei@@ 352
budgets 352
fak@@ 352
fik@@ 352
greift 352
imports 352
password 352
promised 352
s-@@ 352
slowly 352
tus 352
violations 352
würdig 352
zeichn@@ 352
Education 351
Erfüllung 351
Gelder 351
Pack@@ 351
Sobald 351
Sudan 351
Sü@@ 351
Thirdly 351
Up 351
Vel@@ 351
Vorstellungen 351
ati 351
expor@@ 351
freundlich 351
gnisse 351
graphie 351
itäts@@ 351
kontrolli@@ 351
lief 351
lis 351
personnel 351
rup@@ 351
schwierige 351
specified 351
unabhängigen 351
universities 351
verti@@ 351
Gor@@ 350
IG@@ 350
Institut 350
Kollegin 350
Law 350
Len@@ 350
Tei@@ 350
Ungarn 350
Urheber@@ 350
album 350
ament 350
cont@@ 350
dity 350
flexi@@ 350
glaub@@ 350
gut@@ 350
letztes 350
math 350
mented 350
offiziellen 350
outdoor 350
schwan@@ 350
suit 350
vertrauen 350
wendet 350
Anim@@ 349
Beschluss 349
Diam@@ 349
Dritt@@ 349
Fru@@ 349
Information@@ 349
Mexiko 349
Mobile 349
Nahrung 349
Pet@@ 349
Quellen 349
Spezies 349
Venice 349
Werten 349
Zuständigkeit 349
anschließen 349
anyway 349
asts 349
blick 349
daughter 349
derselben 349
gelangt 349
leid 349
nungen 349
ologist 349
peti@@ 349
sende 349
targeted 349
unterstreichen 349
Übergangs@@ 349
68 348
Beteiligten 348
Datenschutz@@ 348
EZB 348
Polizei@@ 348
Rü@@ 348
Town 348
Zone 348
baut 348
beu@@ 348
chemicals 348
echn@@ 348
ih@@ 348
introducing 348
ologi@@ 348
schaft@@ 348
sl@@ 348
sophisticated 348
stattfindet 348
steten 348
stocks 348
stör@@ 348
updated 348
wahre 348
wake 348
zentren 348
CS 347
Joseph 347
Kit@@ 347
Krisen@@ 347
Verhandlungs@@ 347
Volkes 347
Year 347
adding 347
ault 347
beweisen 347
brains 347
buch@@ 347
cen@@ 347
displayed 347
entgegen 347
faszini@@ 347
grosse 347
hierbei 347
hörte 347
ished 347
klin@@ 347
profits 347
sprech@@ 347
supervision 347
tourists 347
verfügbaren 347
wines 347
ê@@ 347
Basi@@ 346
Ehr@@ 346
Erhaltung 346
Gene 346
Hungary 346
Islands 346
Kein 346
Meeting 346
Pin@@ 346
Rechtsstaatlichkeit 346
S. 346
Schiffe 346
Sou@@ 346
angehen 346
benden 346
bewe@@ 346
clock 346
coordinated 346
cted 346
denjenigen 346
genaue 346
internen 346
jetzigen 346
kop@@ 346
militärischen 346
motor@@ 346
omp@@ 346
prisoners 346
quar@@ 346
tively 346
AND 345
GNU 345
Gottes 345
Jung@@ 345
Konzer@@ 345
Marken 345
Sierra 345
Vice 345
diversi@@ 345
endorse 345
fell 345
garten 345
gift 345
harmoni@@ 345
individu@@ 345
inf@@ 345
letzter 345
nern 345
politically 345
produces 345
schweren 345
sought 345
tta 345
vacation 345
züge 345
ätze 345
Afri@@ 344
Bern@@ 344
Entlastung 344
Ferr@@ 344
Fri@@ 344
Level 344
Nachhaltigkeit 344
Sollte 344
Tür@@ 344
View 344
bestimmungen 344
cken@@ 344
containing 344
ecological 344
esch@@ 344
freely 344
inos 344
ori 344
pol 344
realisti@@ 344
safeguard 344
schle@@ 344
tragedy 344
tremendous 344
wartet 344
weitgehend 344
71 343
Australien 343
Branche 343
Children 343
Entscheidungs@@ 343
Finland 343
Posi@@ 343
Radi@@ 343
Sammlung 343
Single 343
Sometimes 343
activ@@ 343
appointment 343
arbeits@@ 343
chemische 343
chtigkeit 343
errors 343
experiments 343
feedback 343
früh@@ 343
hinzu@@ 343
hit@@ 343
ico 343
insi@@ 343
knowing 343
konferenz 343
künftige 343
leistungen 343
moder@@ 343
originally 343
resul@@ 343
revision 343
spr@@ 343
stoß 343
tos 343
vorgeschlagene 343
zuständig 343
Assembly 342
Bul@@ 342
Chile 342
Georgia 342
Jugend 342
Komplexität 342
Meines 342
Nat@@ 342
Prop@@ 342
Rechtsgrundlage 342
Sc@@ 342
Stability 342
VAT 342
artige 342
attached 342
configuration 342
dieselben 342
domin@@ 342
einhalb 342
erstmals 342
fang 342
hervorgehoben 342
implications 342
investigation 342
legs 342
pos@@ 342
remarks 342
restricted 342
ros 342
signals 342
sorge 342
ultimate 342
verständlich 342
wirtschafts@@ 342
ös 342
350 341
Bis@@ 341
Gefühle 341
Hilfs@@ 341
Jobs 341
Prof@@ 341
Statistiken 341
believes 341
caught 341
cin@@ 341
contributed 341
erzeu@@ 341
gnis 341
invented 341
krimin@@ 341
laufenden 341
legally 341
lien 341
moves 341
opens 341
proceed 341
programming 341
sad 341
sauna 341
till 341
unabhängige 341
zustellen 341
Asian 340
Cy@@ 340
Edition 340
Einwohner 340
Eis 340
Ereignis 340
Fisch 340
Herr@@ 340
Ke@@ 340
Kontakt@@ 340
Kopf@@ 340
Krankenhaus 340
NO@@ 340
Next 340
Niemand 340
Quali@@ 340
Rit@@ 340
Schiff 340
Strasbourg 340
TA 340
acknowledge 340
arischen 340
bewältigen 340
bunch 340
consent 340
decorated 340
employed 340
exit 340
football 340
fähigen 340
geren 340
harmonisation 340
instructions 340
komplexe 340
manchen 340
nö@@ 340
passierte 340
poses 340
pour 340
prece@@ 340
unterzeichnet 340
© 340
Based 339
Cra@@ 339
Description 339
Desk 339
Erwachsene 339
Existenz 339
Feuer 339
Grün@@ 339
Schon 339
Sun 339
admit 339
berührt 339
chtes 339
dün@@ 339
feder@@ 339
geprägt 339
get@@ 339
ght 339
incentives 339
itä@@ 339
linien 339
prize 339
realise 339
reflected 339
regu@@ 339
sible 339
solch 339
strategische 339
ure@@ 339
veröffentlichen 339
Ausstattung 338
DR 338
Einen 338
Haftung 338
Haushaltsplan 338
Milch@@ 338
PC@@ 338
Rol@@ 338
St 338
Vorsitz 338
abstimmen 338
ald 338
alem 338
arts 338
bed@@ 338
bereiten 338
een 338
effiziente 338
fassung 338
gefährdet 338
getötet 338
hang 338
indicate 338
ländliche 338
mung 338
relaxation 338
repair 338
richtung 338
sicherung 338
slide 338
soldiers 338
suffered 338
suggestions 338
towns 338
vornehmen 338
ž@@ 338
Edi@@ 337
Jugendlichen 337
Kir@@ 337
Mont@@ 337
Motor 337
Personal@@ 337
Port 337
Sony 337
Stockholm 337
Sum@@ 337
Umweltschutz 337
accidents 337
ae@@ 337
alien 337
concentrate 337
ests 337
firmly 337
fulfil 337
ior 337
justi@@ 337
medizinische 337
nenne 337
pho@@ 337
provider 337
schm@@ 337
sitz@@ 337
sk 337
sse@@ 337
stammen 337
tious 337
trieben 337
zweitens 337
ßten 337
Allianz 336
Archi@@ 336
Dau@@ 336
Debatten 336
ECB 336
Flüchtlinge 336
Gehirn@@ 336
Jungen 336
Rand@@ 336
Tochter 336
adapted 336
atischen 336
bende 336
besucht 336
bewahren 336
bly 336
cosy 336
dau@@ 336
dep@@ 336
einzigartigen 336
erw@@ 336
fiel 336
gardens 336
grund 336
halt@@ 336
ids 336
interessieren 336
itali@@ 336
kräf@@ 336
lasting 336
motivi@@ 336
näh@@ 336
proceedings 336
schnitt 336
theater 336
wand 336
Digital 335
Früh@@ 335
Haar@@ 335
Hat 335
Mir@@ 335
Ol@@ 335
Pacific 335
Pass@@ 335
Patent@@ 335
Set 335
Tsch@@ 335
Update 335
Versorgung 335
Vorhaben 335
approaches 335
ardi@@ 335
bacteria 335
bak@@ 335
bereitgestellt 335
discrimin@@ 335
ela 335
entes 335
entliche 335
grö@@ 335
iel 335
lier 335
nete 335
pass@@ 335
physics 335
printed 335
vertraut 335
virtually 335
voices 335
wachsen@@ 335
Auditors 334
Ed@@ 334
Grünen 334
IV 334
Institu@@ 334
Küsten@@ 334
Partner@@ 334
Regierungschefs 334
SM@@ 334
Standort 334
Wiederauf@@ 334
asp@@ 334
besonderer 334
conscious 334
consequence 334
eben@@ 334
korrekt 334
revenue 334
rieren 334
schrift 334
ska 334
Öffnung 334
ó 334
Andererseits 333
Handels 333
Herbst 333
Sauna 333
Talk 333
altung 333
anbelangt 333
cial 333
dering 333
dlicher 333
dlichkeit 333
einiges 333
ept 333
erfreut 333
etzung 333
expand 333
ffe 333
finanzieren 333
gewal@@ 333
heading 333
hierfür 333
individuell 333
reagiert 333
reservations 333
smus 333
som@@ 333
sser 333
string 333
verse 333
zehn@@ 333
Aufsichts@@ 332
Befugnisse 332
Gew@@ 332
Gibt 332
Green@@ 332
Hum@@ 332
Opposition 332
Ursachen 332
Vorsch@@ 332
alleine 332
antly 332
bi 332
engineers 332
enormen 332
ford 332
hab 332
negotiating 332
plane 332
realen 332
sat 332
schrei@@ 332
scre@@ 332
sheet 332
stan 332
theore@@ 332
verletzt 332
1980 331
Bauern 331
CEO 331
Dan 331
Dritten 331
Gas 331
Jerusalem 331
Sex 331
Werden 331
aktiviert 331
enabling 331
ensures 331
ethical 331
eure 331
fishermen 331
fix@@ 331
fiziert 331
gesam@@ 331
gon 331
inated 331
jahr@@ 331
lity 331
mining 331
museums 331
schwei@@ 331
zeug 331
Ägypten 331
Angeles 330
Dach@@ 330
Fax 330
Fuß@@ 330
Ga@@ 330
Handy 330
Junge 330
Rechten 330
Serbia 330
Socialist 330
Tö@@ 330
achievement 330
biology 330
comparison 330
dramatic 330
eingesch@@ 330
este 330
forthcoming 330
gäbe 330
iens 330
institutionelle 330
mern 330
quo@@ 330
rech@@ 330
snow 330
stoßen 330
undertaken 330
volles 330
в@@ 330
57 329
Argumente 329
Cir@@ 329
Image 329
Neuro@@ 329
PSE 329
Shar@@ 329
adverti@@ 329
attempts 329
brachten 329
dying 329
eld 329
ema 329
entrance 329
festzulegen 329
hostel 329
illa 329
momentan 329
portal 329
preserve 329
ski@@ 329
sst 329
wage 329
wirksame 329
1st 328
94 328
Adobe 328
B5 328
Bildschirm 328
Binnenmarktes 328
Boden@@ 328
Canon 328
Detail 328
Doha 328
Fakten 328
Frauen@@ 328
Genehmigung 328
Geschmack 328
MySQL 328
Newsletter 328
Pir@@ 328
Regel@@ 328
Regional 328
Republi@@ 328
affects 328
ails 328
ausgegeben 328
cab@@ 328
design@@ 328
eating 328
eingegangen 328
entlich 328
false 328
geplant 328
grenz@@ 328
hinzu 328
homo@@ 328
hur@@ 328
ktor 328
lounge 328
mittlerweile 328
nbsp 328
occup@@ 328
play@@ 328
prote@@ 328
records 328
roman@@ 328
roof 328
sentence 328
stylish 328
substan@@ 328
synthe@@ 328
sz@@ 328
· 328
Abschaffung 327
Alt@@ 327
Amt 327
Bedürfnissen 327
Chicago 327
Culture 327
EB@@ 327
Eisenbahn@@ 327
Having 327
Mechanismen 327
Messe 327
Nahrungs@@ 327
Ozean 327
Puerto 327
Refer@@ 327
Stufe 327
Vier@@ 327
Zimmer@@ 327
a. 327
beschreiben 327
boards 327
coal 327
einzuführen 327
enthaltenen 327
gla@@ 327
ington 327
klassi@@ 327
openness 327
processed 327
program@@ 327
reputation 327
rid 327
soul 327
supplier 327
viertel 327
voraus 327
Baum@@ 326
Budapest 326
Cup 326
Eurozone 326
Florenz 326
Lesen 326
Schu@@ 326
Somit 326
Studi@@ 326
Thailand 326
Wall 326
acceler@@ 326
ato@@ 326
excited 326
falling 326
gestärkt 326
grossen 326
holi@@ 326
horse 326
losigkeit 326
medizinischen 326
modern@@ 326
negativen 326
pilot 326
pressed 326
profound 326
providers 326
refers 326
run@@ 326
räum@@ 326
ssen@@ 326
tables 326
tivity 326
warming 326
zierten 326
Aktivität 325
Arm 325
ED 325
Lieferung 325
Non 325
Playa 325
Saddam 325
Stimm@@ 325
acceptance 325
amt 325
archi@@ 325
begegnen 325
besu@@ 325
chinesische 325
echt 325
fizieren 325
innere 325
lebenden 325
saal 325
sichts@@ 325
spür@@ 325
steckt 325
undoubtedly 325
zigen 325
63 324
A-@@ 324
Abendessen 324
Cr@@ 324
Denmark 324
EA 324
Ferien@@ 324
Lager 324
Mono@@ 324
Schicksal 324
administr@@ 324
akzep@@ 324
arbeite 324
aster 324
belieb@@ 324
blieb 324
cau@@ 324
cla@@ 324
convince 324
entering 324
esse 324
euros 324
frem@@ 324
keit 324
listings 324
managing 324
mann@@ 324
rental 324
schwere 324
survival 324
transmission 324
treatments 324
uniform 324
vorgesehenen 324
vorgestellt 324
Argument 323
Brücke 323
CE 323
IB@@ 323
Imm@@ 323
Kauf 323
Mail@@ 323
Secretary 323
WLAN 323
causing 323
deep@@ 323
dienstleistungen 323
encies 323
enterprise 323
eventuell 323
gegenwärtige 323
märkte 323
rolle 323
romantic 323
sozusagen 323
suites 323
turen 323
ungsh@@ 323
whenever 323
ähnlichen 323
ösen 323
87 322
Bulgarien 322
Dru@@ 322
Finanzierungs@@ 322
Hindernisse 322
Weg@@ 322
approve 322
bedeutenden 322
bedroht 322
bisherigen 322
dict@@ 322
effizienter 322
ingt 322
inhal@@ 322
lischen 322
mel 322
realer 322
ric 322
soeben 322
stattdessen 322
tering 322
thei@@ 322
usw 322
wort 322
â@@ 322
Anti 321
Be 321
Einstein 321
Everything 321
Holz 321
Landes@@ 321
Macht@@ 321
Programm@@ 321
Symp@@ 321
Wahrscheinlichkeit 321
any@@ 321
appl@@ 321
awarded 321
bewerten 321
contextual 321
exclusion 321
hohem 321
hü@@ 321
iness 321
informationen 321
mass@@ 321
neben@@ 321
schte 321
sul@@ 321
transformation 321
unentgeltlich 321
weekend 321
überleben 321
16. 320
2015 320
77 320
Bord 320
Cle@@ 320
Ford 320
Kontakte 320
Stau@@ 320
Versionen 320
Wand 320
block@@ 320
bread 320
chapter 320
considerably 320
constructed 320
departure 320
disk 320
empfangen 320
ession 320
exploitation 320
geschah 320
gradually 320
gru@@ 320
herausfinden 320
integriert 320
ji 320
massage 320
milli@@ 320
missions 320
ologischer 320
ols 320
permitted 320
pillar 320
presenting 320
speichern 320
welcomed 320
Übernachtung 320
Aktu@@ 319
Ander@@ 319
Berichten 319
Dam@@ 319
Freizügigkeit 319
Loch 319
Saf@@ 319
Schil@@ 319
Schla@@ 319
Vul@@ 319
Willkommen 319
Wörter 319
Zusätzlich 319
aviation 319
eil 319
fam@@ 319
fähige 319
gelegte 319
geographical 319
incorporated 319
mechanical 319
sections 319
sit@@ 319
tile 319
ups 319
wireless 319
öff@@ 319
öl 319
Commissioners 318
Frieden@@ 318
Gam@@ 318
Hom@@ 318
Offenheit 318
Schle@@ 318
Todesstrafe 318
Tourism 318
Volksgesundheit 318
begleitet 318
clarify 318
dimensional 318
ears 318
einheitliche 318
enjoyed 318
excluded 318
fire@@ 318
gebildet 318
gestaltung 318
häl@@ 318
höchst 318
ingredients 318
mul@@ 318
rechtzeitig 318
seri@@ 318
sichergestellt 318
steller 318
thermal 318
thoughts 318
violent 318
wach@@ 318
Cuba 317
Entfernung 317
Equ@@ 317
Maschinen@@ 317
Provinz 317
Schweizer 317
Top@@ 317
altern@@ 317
buying 317
circle 317
dorthin 317
fährt 317
künst@@ 317
lichste 317
ologists 317
parameters 317
pel@@ 317
reflects 317
respon@@ 317
restructuring 317
rus 317
teuer 317
thly 317
ush 317
wars 317
¤ 317
ère 317
Ausflüge 316
Beide 316
Blut 316
Erstellung 316
Fläche 316
Form@@ 316
Freitag 316
Runde 316
Rückkehr 316
Vertre@@ 316
abend 316
beginn@@ 316
beinahe 316
bemerkt 316
berichtet 316
bewegung 316
dru@@ 316
eil@@ 316
giant 316
kri@@ 316
logic 316
modi@@ 316
ood 316
proportion 316
rahmen 316
set@@ 316
strengthened 316
sufficiently 316
wunderbare 316
zesse 316
Überblick 316
ärm@@ 316
11@@ 315
5,@@ 315
Arch@@ 315
Haf@@ 315
Jesus 315
SD@@ 315
Schwe@@ 315
Steve 315
TE 315
Unternehmer 315
Up@@ 315
VER@@ 315
allocated 315
alty 315
anniversary 315
assess 315
bian 315
clause 315
dating 315
ehrgei@@ 315
gerich@@ 315
gross 315
insist 315
kenne 315
komplexen 315
powered 315
protocol 315
refer@@ 315
rot 315
schreibt 315
spectrum 315
stil@@ 315
unterliegen 315
weichen 315
wendung 315
BMW 314
Dialogs 314
Erlebnis 314
Geheim@@ 314
Integr@@ 314
Jun@@ 314
PM 314
adds 314
angewandt 314
answered 314
bedanken 314
centers 314
coherent 314
cum@@ 314
gur@@ 314
gy@@ 314
hingegen 314
holds 314
ishing 314
meal 314
neo@@ 314
newspaper 314
praktischen 314
pressing 314
vergleichen 314
warning 314
wirklichen 314
-year-old 313
Daniel 313
Drogen 313
EP 313
Fur@@ 313
Länge 313
Milli@@ 313
Ruf 313
Schön@@ 313
Verb@@ 313
a.@@ 313
angegeben 313
brother 313
efficiently 313
gemä@@ 313
griechischen 313
gst 313
kompliziert 313
labelling 313
organis@@ 313
ories 313
rechtlich 313
regel@@ 313
remained 313
ré@@ 313
sad@@ 313
teen 313
tons 313
tten@@ 313
vereinbart 313
ätzung 313
überaus 313
Ball@@ 312
Bewegungen 312
Fei@@ 312
Handlungs@@ 312
Luf@@ 312
Präsentation 312
Sim@@ 312
Ven@@ 312
Wirtschaftskrise 312
aire 312
aks 312
begun 312
boden 312
festzustellen 312
gewähren 312
hopes 312
humanitäre 312
individually 312
interaction 312
ordin@@ 312
pace 312
restri@@ 312
suche 312
tisches 312
yle 312
000@@ 311
Castle 311
Co 311
Coun@@ 311
Demokraten 311
Ecke 311
Ehre 311
Ergebnissen 311
Finde 311
Geneva 311
Journalisten 311
Mechanismus 311
Montag 311
Nahrungsmittel@@ 311
Prize 311
Salz@@ 311
aj@@ 311
angle 311
en- 311
fuhren 311
gend@@ 311
jec@@ 311
klein@@ 311
merken 311
ppen@@ 311
strukturi@@ 311
such@@ 311
vorliegende 311
wäl@@ 311
älteren 311
ł@@ 311
AM 310
Alp@@ 310
Hän@@ 310
Kaffee 310
ST 310
Seele 310
Seh@@ 310
Typen 310
Wild@@ 310
ais 310
ancy 310
beseitigen 310
ckte 310
compar@@ 310
emphasi@@ 310
guided 310
langfristig 310
overview 310
pes 310
publication 310
sisch 310
tac@@ 310
umfassend 310
verschieden@@ 310
verwaltung 310
zugeben 310
10,000 309
Ablehnung 309
Armen 309
Balkon 309
Eri@@ 309
Frank 309
Gerichts@@ 309
Kopenhagen 309
Linien 309
Lok@@ 309
Mathematik 309
Nation@@ 309
Prüf@@ 309
Ratschlag 309
Ros@@ 309
Sy@@ 309
angewendet 309
aria 309
artificial 309
aufhören 309
bach 309
cip@@ 309
cleaning 309
collapse 309
commun@@ 309
digungen 309
encouraged 309
essed 309
fasst 309
funktion 309
funny 309
keeps 309
klasse 309
maps 309
mere 309
sample 309
studying 309
to-@@ 309
vorschlag 309
widespread 309
zweif@@ 309
ökologischen 309
04@@ 308
10. 308
AF@@ 308
Baby 308
Consequently 308
Danach 308
Drei 308
Gemeinschaft@@ 308
Gleichstellung 308
Symbol 308
Touristen 308
Yo@@ 308
anschließend 308
anzuwenden 308
countryside 308
deinen 308
entscheidenden 308
fax 308
fällig 308
graphics 308
narrow 308
oldest 308
pp 308
predic@@ 308
schla@@ 308
sco@@ 308
sser@@ 308
ssing 308
trips 308
u.a. 308
verursachen 308
Übertragung 308
Bevor 307
Consumer 307
Corporate 307
Distribution 307
Forscher 307
Hab@@ 307
Jewish 307
LI@@ 307
Parlamente 307
Presse@@ 307
Seri@@ 307
Wand@@ 307
Zerstörung 307
ausgewählt 307
ausgezeichnet 307
beer 307
beobach@@ 307
ever@@ 307
falschen 307
fehl@@ 307
forever 307
geblieben 307
gue 307
irs 307
one-@@ 307
potenti@@ 307
schä@@ 307
sprozess 307
städ@@ 307
tail 307
twenty 307
verbreiten 307
900 306
Anschluss 306
Beweise 306
Burma 306
Dies@@ 306
Internationale 306
Miß@@ 306
Schuld 306
Uns 306
Vertrages 306
aran@@ 306
bol@@ 306
bru@@ 306
busy 306
europäisches 306
fitness 306
fühle 306
jedenfalls 306
jour@@ 306
lobby 306
posed 306
recording 306
reserved 306
richti@@ 306
satisfy 306
schn@@ 306
seats 306
sound@@ 306
wuchs 306
änder 306
Balkan 305
Ben 305
Cu@@ 305
Department 305
Europ@@ 305
Fehl@@ 305
Kreditkarte 305
V. 305
Weiteren 305
austausch 305
behoben 305
bungen 305
delicious 305
dend 305
economics 305
elli@@ 305
etry 305
expense 305
geeignete 305
gewünschten 305
irischen 305
konkret 305
lernte 305
natur@@ 305
passing 305
selb@@ 305
shel@@ 305
stry 305
tent@@ 305
wieso 305
§ 305
6. 304
90@@ 304
Börse 304
CAP 304
EG@@ 304
Gem@@ 304
Get@@ 304
Jugend@@ 304
Nord 304
Parkplatz 304
Rin@@ 304
Sher@@ 304
Society 304
Spr@@ 304
Spre@@ 304
addresses 304
alcohol 304
alists 304
ausser@@ 304
clean@@ 304
diskrimini@@ 304
forgotten 304
gam@@ 304
judge 304
mid@@ 304
mistakes 304
new@@ 304
op 304
oring 304
pak@@ 304
relates 304
stärksten 304
succeeded 304
tedly 304
trop@@ 304
ump 304
yard 304
zurückzuführen 304
überzeu@@ 304
19th 303
Bade@@ 303
Bol@@ 303
Cooperation 303
Direc@@ 303
Dritte 303
Entwickl@@ 303
Gran 303
Krieges 303
Kroatien 303
MB 303
Mutter@@ 303
RI 303
Ret@@ 303
Smith 303
Tom 303
Wichtigkeit 303
analyse 303
arabischen 303
asen 303
atorium 303
beat 303
cam@@ 303
checks 303
dependence 303
dienst@@ 303
dimension@@ 303
entstand 303
erteilt 303
exposed 303
gegenüber@@ 303
gehör@@ 303
hell 303
holes 303
investiert 303
joining 303
mini 303
objec@@ 303
ong@@ 303
ownership 303
photographs 303
pil@@ 303
schlimmer 303
schnellen 303
viewed 303
ú@@ 303
AKP 302
Academy 302
Again 302
Among 302
Berich@@ 302
Danish 302
Dokumenten 302
Dynamik 302
Key@@ 302
Konto 302
Lat@@ 302
Lounge 302
Mittelmeer 302
Notes 302
Rein@@ 302
Stock 302
Zusammenhalt 302
alisierte 302
ander 302
ansprechen 302
atom@@ 302
aux 302
befasst 302
compo@@ 302
conservation 302
contradi@@ 302
evolved 302
fees 302
gels 302
gesucht 302
hne 302
iles 302
itable 302
küste 302
movies 302
planen 302
prosec@@ 302
renowned 302
shore 302
sied@@ 302
technique 302
tracks 302
unusual 302
variable 302
werks 302
67 301
Garden 301
Gemeinsame 301
Musi@@ 301
SU@@ 301
Sicherheitspolitik 301
Stell@@ 301
Vorsitzenden 301
Zeu@@ 301
behält 301
concentration 301
dings 301
dreams 301
erreichbar 301
festgelegten 301
foundations 301
fts 301
illegale 301
läge 301
optimale 301
philosoph@@ 301
pper 301
repeated 301
unforgettable 301
walked 301
wisdom 301
üb@@ 301
Ankunft 300
Bereitschaft 300
Come 300
Direkt@@ 300
Fast 300
Kandidaten 300
Know 300
Listings 300
Make 300
Manhattan 300
Offen@@ 300
Philosophie 300
Rak@@ 300
SS@@ 300
Schulz 300
Terroristen 300
Treaties 300
Ursache 300
arbeiter 300
argu@@ 300
blicken 300
bot 300
construc@@ 300
cop@@ 300
dete@@ 300
discovery 300
einst 300
ester@@ 300
etri@@ 300
füll@@ 300
geäußert 300
hervorragenden 300
ison 300
main@@ 300
methoden 300
männ@@ 300
offenbar 300
organisms 300
papers 300
plate 300
ques 300
routes 300
schaut 300
skiing 300
stellungs@@ 300
subsequent 300
teils 300
ura 300
verfol@@ 300
welcomes 300
wherever 300
wohin 300
73 299
Besitz@@ 299
Blan@@ 299
Donnerstag 299
Euch 299
Ombudsman 299
PRO@@ 299
Räume 299
Saturday 299
Straßburg 299
TI@@ 299
Tum@@ 299
Viel@@ 299
Zw@@ 299
bauten 299
connec@@ 299
entdeckst 299
extending 299
fleet 299
freiwil@@ 299
fut@@ 299
gewisser 299
gkeiten 299
imagination 299
internationally 299
lec@@ 299
massi@@ 299
mäßige 299
nachdrücklich 299
path@@ 299
schließ@@ 299
strukturen 299
ttes 299
werken 299
7. 298
70@@ 298
Aktionsplan 298
Beseitigung 298
Edinburgh 298
Eink@@ 298
Gedanke 298
Guide 298
Hohe 298
Masse 298
Niederlanden 298
Regulierung 298
Spektrum 298
Steuerung 298
Tal 298
Umweltfragen 298
Wi 298
Wir@@ 298
arium 298
belie@@ 298
commit 298
deaths 298
eing 298
eingestellt 298
ergänzen 298
fat@@ 298
fizi@@ 298
gegenseitig 298
geous 298
klären 298
pm 298
reconstruction 298
schalten 298
schneiden 298
simul@@ 298
thinks 298
whatsoever 298
überwachen 298
83 297
Beachtung 297
Beijing 297
Black@@ 297
Max 297
Neues 297
Play@@ 297
Projekts 297
Stock@@ 297
Wür@@ 297
Zuerst 297
advoc@@ 297
artiger 297
bank@@ 297
battery 297
beantwortet 297
burger 297
ehe 297
eigener 297
enthalt 297
fans 297
gemeinsames 297
gestiegen 297
height 297
herrlichen 297
inci@@ 297
infolge 297
pack 297
populations 297
potenzi@@ 297
quest 297
transferred 297
underlying 297
veran@@ 297
vorschläge 297
wra@@ 297
zten 297
änge 297
Beru@@ 296
Bevölkerungs@@ 296
Could 296
Entwicklungshilfe 296
Heimat 296
Lich@@ 296
Quality 296
Schloss 296
Spezial@@ 296
Temperatur 296
Tools 296
Vertretern 296
Wellness 296
Wen@@ 296
bag 296
beschreibt 296
breaking 296
confirmation 296
dated 296
desirable 296
etzt 296
gesetzlichen 296
getreten 296
intends 296
investig@@ 296
ized 296
jemandem 296
liter@@ 296
meaningfully 296
negotiation 296
observation 296
ranging 296
sus@@ 296
swi@@ 296
ug@@ 296
wirst 296
Administration 295
Ath@@ 295
Berge 295
Bü@@ 295
Conc@@ 295
Following 295
Frist 295
Leh@@ 295
Personen@@ 295
Quad@@ 295
SD 295
Taten 295
Tour@@ 295
Wahrnehmung 295
Wasch@@ 295
Weltkrieg 295
acqu@@ 295
agents 295
aring 295
assembly 295
behauptet 295
bestellen 295
billions 295
creature 295
ease 295
eingebracht 295
ened 295
enhanced 295
erzählte 295
gebraucht 295
highlights 295
hinzufugen 295
ial 295
kam@@ 295
kontextuellen 295
kü@@ 295
loser 295
melden 295
offizielle 295
pft 295
portfolio 295
promises 295
scar@@ 295
spielte 295
stake 295
strictly 295
territorial 295
ulate 295
umso 295
von@@ 295
Übergang 295
ßte 295
Architekten 294
Berichterstatters 294
Client 294
Ep@@ 294
Freiwil@@ 294
Harvard 294
Human@@ 294
Jahr@@ 294
Marken@@ 294
Mig@@ 294
OF 294
Parti@@ 294
Premierminister 294
Proto@@ 294
Typ@@ 294
Zahn@@ 294
anlage 294
catastrop@@ 294
eingeladen 294
elen 294
engines 294
entation 294
essing 294
genuinely 294
harmful 294
highlighted 294
imperi@@ 294
import 294
irgendwann 294
kter 294
loses 294
lüsse 294
module 294
nah 294
normale 294
promo@@ 294
sar@@ 294
sexu@@ 294
steigern 294
tia 294
tnissen 294
trä@@ 294
unglaubliche 294
zel@@ 294
1,000 293
Bakterien 293
Benutz@@ 293
Berliner 293
Finger 293
Fundamental 293
Gespräch 293
Gewinn 293
Großen 293
IMF 293
Impf@@ 293
Leitung 293
Sachver@@ 293
Stan@@ 293
Sul@@ 293
Tari@@ 293
Vene@@ 293
attra@@ 293
bege@@ 293
benachtei@@ 293
diplomatic 293
enger 293
erfordern 293
ganzes 293
gor@@ 293
ield 293
ignore 293
ition 293
ization 293
ji@@ 293
purely 293
riding 293
rö@@ 293
schlechter 293
sich@@ 293
smooth 293
tigkeiten 293
tom 293
wise 293
13. 292
66 292
76 292
Dänemark 292
LU@@ 292
Master 292
Pati@@ 292
Publi@@ 292
Source 292
U.@@ 292
Umstände 292
Zahlungen 292
atis@@ 292
beschrän@@ 292
crises 292
dispute 292
dumping 292
externen 292
finds 292
istan 292
kontaktieren 292
married 292
nie@@ 292
sischer 292
step@@ 292
tape 292
translated 292
typischen 292
vermu@@ 292
verz@@ 292
ys@@ 292
82 291
AK@@ 291
Authority 291
Autor 291
Beste 291
DO@@ 291
Director 291
Genießen 291
Mä@@ 291
Nah@@ 291
Tou@@ 291
absurd 291
actor 291
adventure 291
alize 291
beln 291
candidates 291
compare 291
convention 291
dauer 291
fold 291
gefällt 291
grammatically 291
grammatisch 291
humanitären 291
knapp 291
kämp@@ 291
körper@@ 291
lev@@ 291
liegende 291
loo@@ 291
mono@@ 291
neighbouring 291
observe 291
scheduled 291
scientist 291
sent@@ 291
tragic 291
unk@@ 291
victory 291
virtu@@ 291
voneinander 291
vorgelegten 291
widmen 291
ärer 291
12. 290
Autobahn 290
Besonder@@ 290
Konvent 290
Käufer 290
Museen 290
Nar@@ 290
PD@@ 290
Schlaf@@ 290
Sem@@ 290
Umwel@@ 290
Verein@@ 290
Vorausschau 290
anne 290
anz@@ 290
appropriations 290
ats@@ 290
begrün@@ 290
beinhalten 290
festen 290
foto@@ 290
gebo@@ 290
gemessen 290
geschnitten 290
graph 290
hilfreich 290
ix 290
kanischen 290
kommunizieren 290
kontextuell 290
num@@ 290
pole 290
producer 290
rob@@ 290
shortly 290
stärkere 290
surveillance 290
troops 290
án 290
Besides 289
Bibliothek 289
D. 289
Gast 289
Glas 289
Kommentare 289
Souveränität 289
Stur@@ 289
Universitäten 289
arising 289
bemerken 289
berechnet 289
deci@@ 289
environments 289
eta 289
generell 289
geograph@@ 289
glo@@ 289
greenhouse 289
hill 289
ilit@@ 289
interessanten 289
lass 289
liable 289
luxurious 289
omen 289
pop@@ 289
radik@@ 289
referring 289
typically 289
vacc@@ 289
äm@@ 289
84 288
ACP 288
Bestimmung 288
Cer@@ 288
Gegenwart 288
Immer 288
Intel@@ 288
Islam@@ 288
Lis@@ 288
Lor@@ 288
Oxford 288
Prozess@@ 288
Salzburg 288
Taliban 288
William 288
ano@@ 288
bearing 288
bedro@@ 288
bonus 288
contextually 288
derzeitige 288
digit@@ 288
dring@@ 288
drängen 288
ean 288
emplo@@ 288
enswert 288
entschied 288
environmentally 288
ergänzt 288
evil 288
feelings 288
harm 288
klingt 288
konstru@@ 288
landwirtschaftlichen 288
medicines 288
netz@@ 288
operates 288
provo@@ 288
quellen 288
regierung 288
tissue 288
updates 288
vent@@ 288
verfahrens 288
vermögen 288
wesentlicher 288
zahlt 288
ín 288
6,@@ 287
CON@@ 287
Fahrer 287
Gehirns 287
Glei@@ 287
Heimat@@ 287
Kategorien 287
König@@ 287
LE 287
Lizenz 287
Schlusselphrase 287
Schlusselwort 287
Sieg 287
Tel 287
Verarbeitung 287
accounting 287
ahn 287
annt 287
bezeichnen 287
champi@@ 287
colours 287
considers 287
custom@@ 287
diesbezüglich 287
diff@@ 287
eigentliche 287
electro@@ 287
enforcement 287
gements 287
gression 287
innovations 287
lädt 287
nachhal@@ 287
nicht@@ 287
panel 287
photograph 287
repeatedly 287
ruft 287
sichti@@ 287
specialist 287
stores 287
tigten 287
tliches 287
welle 287
Belgian 286
Besitz 286
Deutsch 286
Fahrt 286
Fehler@@ 286
Four@@ 286
HTML 286
Konz@@ 286
Nachmittag 286
Sav@@ 286
Schatten 286
Südafrika 286
Traditionen 286
Wiederaufbau 286
Wunder 286
anzubieten 286
aufgezahlt 286
ausüben 286
behand@@ 286
boxes 286
campaigns 286
ci 286
consciousness 286
constitutes 286
edition 286
entspannen 286
fru@@ 286
gement 286
herunter@@ 286
lösungen 286
meals 286
mus@@ 286
negotiate 286
observed 286
sauber@@ 286
stressed 286
urgency 286
verwandeln 286
writer 286
wü@@ 286
yo 286
62 285
Agenturen 285
Bron@@ 285
Eng@@ 285
Gewinn@@ 285
Hypo@@ 285
Imagine 285
Meer@@ 285
Piazza 285
Rich@@ 285
Schlei@@ 285
Spor@@ 285
Vereinfachung 285
airports 285
betr@@ 285
cour@@ 285
eckt 285
enheit 285
execution 285
executive 285
frequ@@ 285
fäh@@ 285
gelegenen 285
haber 285
hyper@@ 285
interes@@ 285
leitung 285
organ 285
selbe 285
streben 285
stur@@ 285
tradition@@ 285
töten 285
wick@@ 285
yellow 285
81 284
Common 284
Erfolge 284
Facilities 284
Hir@@ 284
Invest@@ 284
Investoren 284
LT 284
Logik 284
Menü 284
Metro@@ 284
OL@@ 284
Parameter 284
SMS 284
Staats- 284
Wälder 284
YouTube 284
abgesehen 284
alog@@ 284
alongside 284
compete 284
damages 284
directory 284
diver@@ 284
effektive 284
ehren 284
fikation 284
fühlte 284
gesellschaftlichen 284
gins 284
ium 284
joy 284
kurs 284
märkten 284
mäßigen 284
ont@@ 284
premi@@ 284
regionen 284
righ@@ 284
schlechten 284
schten 284
sogenannte 284
stal@@ 284
Av@@ 283
Bett 283
Erkenntnis 283
Joint 283
Leit@@ 283
Mani@@ 283
Porto 283
Py@@ 283
Saal 283
Sekunde 283
Spitzen@@ 283
Tor 283
Versuche 283
Vordergrund 283
Wahr@@ 283
ausgaben 283
concert 283
dauern 283
emotion@@ 283
fuer 283
functionality 283
fundamentally 283
fünf@@ 283
instantly 283
integrierten 283
interne 283
journ@@ 283
komplette 283
lerin 283
lor@@ 283
mothers 283
nächstes 283
patents 283
potentially 283
robo@@ 283
schwieriger 283
spä@@ 283
thal@@ 283
utmost 283
verkün@@ 283
villa 283
Eli@@ 282
GA 282
Hardware 282
Lastly 282
Män@@ 282
Over@@ 282
Pakete 282
See@@ 282
Sound 282
Texas 282
Volkspartei 282
Woo@@ 282
accum@@ 282
auffordern 282
automati@@ 282
bour@@ 282
elev@@ 282
eping 282
exist@@ 282
expec@@ 282
happ@@ 282
kilometers 282
le-@@ 282
lebte 282
measured 282
ov 282
performing 282
pools 282
posing 282
raus 282
sake 282
spezif@@ 282
spite 282
starb 282
stischen 282
strike 282
symboli@@ 282
tatsächlichen 282
umfassen@@ 282
versammlung 282
verweisen 282
worried 282
zerstören 282
м@@ 282
Ausrüstung 281
Aussagen 281
Blair 281
Frü@@ 281
Hunder@@ 281
Instruments 281
Jedoch 281
Milliarde 281
Place 281
Stim@@ 281
Weiterentwicklung 281
Zeug 281
Zweiten 281
allgem@@ 281
ank 281
begeistert 281
beschränken 281
bett 281
boost 281
chron@@ 281
compulsory 281
cooking 281
ennen 281
escape 281
fes 281
gehei@@ 281
hopefully 281
illu@@ 281
integrate 281
mile 281
modules 281
retain 281
rief 281
tness 281
tolle 281
walks 281
wellness 281
wheel 281
wunderschöne 281
wör@@ 281
überlegen 281
Г 281
130 280
Ern@@ 280
Helsinki 280
Lü@@ 280
Mengen 280
Prozeß 280
Sek@@ 280
Sir 280
Situated 280
Third 280
Verbrau@@ 280
Versammlung 280
Verwirklichung 280
Wikipedia 280
aled 280
angemessenen 280
arische 280
beschleunigen 280
cameras 280
chts 280
classical 280
destroy 280
dial 280
doubts 280
entwick@@ 280
floors 280
funktionier@@ 280
gehende 280
keineswegs 280
lighting 280
mixed 280
moon 280
mur@@ 280
pati@@ 280
schien 280
sitzt 280
stood 280
südlichen 280
terror@@ 280
trat 280
underground 280
vermittelt 280
äuß@@ 280
1984 279
1986 279
BC 279
Civil 279
Ernährung 279
Finnland 279
Frequ@@ 279
Grundlagen 279
Iron@@ 279
Jac@@ 279
Kompetenz 279
Meilen 279
Ori@@ 279
argum@@ 279
bewußt 279
bürger@@ 279
compact 279
deposit 279
dominant 279
drückt 279
erfahr@@ 279
löschen 279
manual 279
meistens 279
mittag 279
nat@@ 279
neten 279
operated 279
organize 279
ouse 279
pay@@ 279
qualitativ 279
secondly 279
stones 279
tered 279
ursprüngliche 279
worrying 279
ão 279
ünd@@ 279
т@@ 279
Akteure 278
Außen- 278
Bars 278
Brun@@ 278
Bäume 278
Car 278
Dur@@ 278
Europä@@ 278
Felder 278
Games 278
Intelligenz 278
Interess@@ 278
Materie 278
OLAF 278
akt 278
asks 278
bevorzu@@ 278
bewirken 278
contrac@@ 278
convergence 278
debating 278
errichtet 278
erstens 278
estimate 278
fifth 278
flug@@ 278
gebunden 278
gestartet 278
hospitality 278
judgment 278
mein@@ 278
pop 278
prospects 278
reporting 278
reverse 278
score 278
sern 278
seu@@ 278
skill 278
stanz 278
steam 278
suspended 278
türkischen 278
verringert 278
äußer@@ 278
übrig 278
ürz@@ 278
Ausrichtung 277
Federation 277
Folgendes 277
Investment 277
Jer@@ 277
Kommun@@ 277
Mandat 277
Patri@@ 277
Reserve 277
Rock 277
Schad@@ 277
Tragödie 277
Trend 277
Wetter 277
aden@@ 277
affecting 277
anzeigen 277
bus@@ 277
drives 277
energie 277
frequency 277
geregelt 277
gesammelt 277
geschäft 277
hierzu 277
honour 277
kernel 277
kleinere 277
leute 277
mals 277
moralische 277
ordered 277
participating 277
pflanzen 277
suff@@ 277
supplied 277
tsp@@ 277
uncertainty 277
varied 277
verschwinden 277
wes@@ 277
wofür 277
Abfall@@ 276
Aktien@@ 276
Bun@@ 276
Ly@@ 276
ME 276
Phil@@ 276
Transpor@@ 276
Widerstand 276
Zucker@@ 276
angenehm 276
berühmte 276
bran@@ 276
brilliant 276
capture 276
diger 276
eradic@@ 276
experiencing 276
fehlen 276
geschlagen 276
getrennt 276
gewicht 276
gieren 276
gleichermaßen 276
hide 276
journalists 276
matic 276
native 276
rank 276
roll@@ 276
silence 276
tiv 276
tower 276
zeigten 276
zierung 276
21st 275
8. 275
Aspekten 275
Behörde 275
Errichtung 275
Höchst@@ 275
Industry 275
Marco 275
Truppen 275
Urteil 275
Verhaltens@@ 275
Wat@@ 275
Zwar 275
anerkennen 275
deserve 275
drinks 275
formats 275
genau@@ 275
governing 275
inne 275
lans 275
längst 275
palästinensischen 275
rang 275
regulated 275
stechnik 275
stet 275
unknown 275
verbreit@@ 275
waves 275
zeichnete 275
zweifel@@ 275
zwölf 275
ès 275
Diesen 274
Fisheries 274
Gruppen@@ 274
Gulf 274
Handlungen 274
Intergovernmental 274
Korrek@@ 274
Kurz 274
Lieblings@@ 274
Schalt@@ 274
Tag@@ 274
Techniken 274
Trek 274
Währungsunion 274
Zuge 274
alls 274
arrest 274
bahn@@ 274
biodiversity 274
carto@@ 274
chose 274
cus 274
erfunden 274
explains 274
fün@@ 274
ghts 274
grand 274
größeres 274
ign 274
kaner 274
klassischen 274
neurons 274
sidenten 274
solving 274
stag 274
statten 274
stil 274
survey 274
tol@@ 274
urgently 274
vali@@ 274
whereby 274
14. 273
Anreize 273
Further 273
Geburt 273
Jam@@ 273
Kau@@ 273
Klassen@@ 273
Nichts 273
Obje@@ 273
alternatives 273
anspruchs@@ 273
beträch@@ 273
detailli@@ 273
erforschen 273
erstaunlich 273
erwiesen 273
evi@@ 273
feh@@ 273
freundlichen 273
großartig 273
häuser 273
izing 273
kan 273
kund@@ 273
law@@ 273
möglichkeit 273
ony@@ 273
richtungen 273
simultaneously 273
split 273
stunning 273
zö@@ 273
1.5 272
5,000 272
78 272
Area 272
Armen@@ 272
Blin@@ 272
Constitutional 272
Darfur 272
Geschle@@ 272
Herkunft 272
Install@@ 272
Internal 272
Kn@@ 272
Modernisierung 272
NICHT 272
OECD 272
Renn@@ 272
Rent@@ 272
Sand 272
Sig@@ 272
Ton 272
Using 272
Wochenende 272
anpassen 272
attend 272
coastal 272
consulting 272
dans 272
derart 272
earn 272
entworfen 272
gebor@@ 272
günsti@@ 272
inneren 272
leich@@ 272
logo 272
lucky 272
manufacture 272
menge 272
onien 272
pflich@@ 272
resp@@ 272
seeks 272
sessions 272
smar@@ 272
sprä@@ 272
tension 272
three-@@ 272
verwendeten 272
ähr@@ 272
л@@ 272
196@@ 271
Betracht 271
CA 271
D.@@ 271
Datum 271
Eff@@ 271
Fitness@@ 271
GAP 271
Golden 271
Her 271
Pfei@@ 271
Pflanzen@@ 271
Schwellen@@ 271
Senkung 271
Signale 271
Sili@@ 271
TC 271
USS 271
Zahlung 271
agt 271
ahnen 271
amended 271
chairman 271
clarity 271
dress 271
erkunden 271
goo@@ 271
herauszu@@ 271
hervorragend 271
hydro@@ 271
impro@@ 271
keits@@ 271
kür@@ 271
materi@@ 271
measuring 271
permission 271
por 271
recall 271
resulted 271
setzten 271
stätigkeit 271
teri@@ 271
traum 271
unde 271
unnecessary 271
upgrade 271
verhandlungen 271
verletz@@ 271
willingness 271
wäh@@ 271
Audi@@ 270
Auftrags@@ 270
Ausarbeitung 270
DC 270
Gesetzes@@ 270
Minderheit 270
Mitglieds@@ 270
Num@@ 270
Obviously 270
Reh@@ 270
Schwarz@@ 270
Wähler 270
aufnahme 270
bekann@@ 270
bruch 270
ceiling 270
cent@@ 270
closing 270
dation 270
derte 270
erlangen 270
fails 270
fragten 270
geholfen 270
gste 270
hochwertige 270
interview 270
kritischen 270
langfristige 270
lege 270
lässi@@ 270
magne@@ 270
operator 270
propor@@ 270
reliability 270
revolution@@ 270
roten 270
schnei@@ 270
sinn 270
tica 270
trei@@ 270
violation 270
äden 270
9. 269
Bak@@ 269
Dienst@@ 269
Gebäuden 269
Gü@@ 269
Hussein 269
Häfen 269
Jahrzehnte 269
Moder@@ 269
Niederlande 269
Palestinians 269
Parkplätze 269
Renten@@ 269
Solana 269
Tabak@@ 269
Tempo 269
Versicherungs@@ 269
Versprechen 269
Zypern 269
array 269
associations 269
beizu@@ 269
beobachtet 269
brands 269
closure 269
creatures 269
decre@@ 269
divi@@ 269
erleb@@ 269
evident 269
floo@@ 269
grund@@ 269
halts 269
ichts 269
iner@@ 269
intentions 269
isti@@ 269
killing 269
komplex 269
kro@@ 269
olog@@ 269
religiösen 269
schemes 269
schwerwie@@ 269
terrorists 269
transpor@@ 269
traum@@ 269
vergleich@@ 269
verstän@@ 269
verwand@@ 269
viable 269
vorange@@ 269
wel 269
zusetzen 269
zweiter 269
ähn@@ 269
ärmsten 269
140 268
69 268
Bereits 268
Bli@@ 268
Chin@@ 268
Das@@ 268
Erforder@@ 268
Ersatz@@ 268
Lebensqualität 268
Netzwerke 268
Planet 268
Präsenz 268
Sowohl 268
Strecke 268
Summe 268
Tanz@@ 268
Tech 268
Tief@@ 268
Wirksamkeit 268
Wählen 268
Zelle 268
Zivilisation 268
acquired 268
alitäten 268
boats 268
branche 268
breast 268
codes 268
dicht 268
economically 268
eröffnen 268
experim@@ 268
f-@@ 268
gab@@ 268
gehenden 268
gungs@@ 268
immt 268
inn 268
lebten 268
musikali@@ 268
novel 268
nächster 268
regelung 268
sudden 268
taining 268
vorne 268
vous 268
well-@@ 268
zones 268
zufällig 268
Übrigen 268
Ablauf 267
Anonymous 267
Beruf 267
Flughäfen 267
Mög@@ 267
NASA 267
Nor 267
Ratifizierung 267
Rede@@ 267
Rem@@ 267
Road 267
Shanghai 267
Verbraucherschutz 267
Verordnungen 267
Vertrag@@ 267
angenehmen 267
aufre@@ 267
beach@@ 267
besagt 267
biom@@ 267
bricht 267
cians 267
complaints 267
cool@@ 267
crops 267
electoral 267
emerged 267
ergi@@ 267
freier 267
gekennzeichnet 267
hinzugefügt 267
krieg 267
ratification 267
roughly 267
sty@@ 267
stä@@ 267
subsequently 267
teilten 267
tu 267
uch 267
ues 267
vocational 267
withdraw 267
Album 266
Bec@@ 266
Energieeffizienz 266
Entschlossenheit 266
Entspannung 266
Florence 266
Four 266
Gute 266
Haushalts 266
Maß@@ 266
Potential 266
Registrierung 266
Stri@@ 266
arbeitungs@@ 266
datum 266
emotions 266
finanzi@@ 266
forec@@ 266
gate 266
kamp@@ 266
leidet 266
loading 266
organisierten 266
pedi@@ 266
quanti@@ 266
rufe 266
ungsprogramm 266
verblei@@ 266
viruses 266
vorhin 266
yn 266
zurückkehren 266
74 265
Anwender 265
Arbeiter 265
Arm@@ 265
Bauern@@ 265
Bour@@ 265
Dreh@@ 265
EIB 265
Employment 265
Everyone 265
Ferienwohnung 265
Fischler 265
Ganze 265
HU 265
Immobilien 265
Kabel 265
Kohäsionspolitik 265
Leiter 265
Ner@@ 265
Privatsphäre 265
Sied@@ 265
Zauber@@ 265
awa@@ 265
babies 265
band@@ 265
beneficial 265
bla@@ 265
brut@@ 265
dialog 265
elektron@@ 265
elli 265
enjoying 265
eption 265
erklär@@ 265
eting 265
exploring 265
glie@@ 265
intu@@ 265
könne 265
lager 265
lossen 265
picturesque 265
react 265
redu@@ 265
rever@@ 265
schwi@@ 265
ses@@ 265
sively 265
stattgefunden 265
tempor@@ 265
tender 265
therapie 265
vorzunehmen 265
weilen 265
weis 265
weiss 265
ziger 265
zurzeit 265
zustande 265
ühr@@ 265
д@@ 265
9,@@ 264
Bed 264
Bla@@ 264
DP 264
Fall@@ 264
Full 264
Katalog 264
Louis 264
Luxemburg 264
Regional@@ 264
SI 264
Sonntag 264
Strand@@ 264
Together 264
Venedig 264
Vista 264
anzupassen 264
apparently 264
besseres 264
chairs 264
ements 264
geschlossenen 264
gültig 264
harder 264
herausge@@ 264
intense 264
italienische 264
junger 264
literature 264
oftmals 264
reit@@ 264
respektieren 264
stops 264
technisch 264
teen@@ 264
öffnet 264
Alternativen 263
Bah@@ 263
Betten 263
Bosnia 263
Einsatz@@ 263
Gesundheitswesen 263
Innerhalb 263
Klimawandels 263
Lateinamerika 263
MP3 263
Peti@@ 263
Protocol 263
Reservierung 263
Stad@@ 263
Stahl@@ 263
Wednesday 263
achievements 263
besonderes 263
bow@@ 263
brow@@ 263
crew 263
daten@@ 263
eliminate 263
fahrzeuge 263
flu 263
flächen 263
garage 263
gged 263
interactive 263
konkur@@ 263
kün@@ 263
legitimacy 263
meister 263
mines 263
multilateral 263
neighbours 263
onia 263
outs 263
reflection 263
shoes 263
sicherer 263
stoppen 263
verzer@@ 263
wearing 263
weißen 263
welcoming 263
würdigen 263
zierte 263
üblichen 263
Amerikas 262
Audio 262
Auflösung 262
Engineering 262
Line 262
Opera 262
Rand 262
Suiten 262
Wettbewerbs 262
alter@@ 262
anschau@@ 262
beef 262
bew@@ 262
conferences 262
diving 262
drop@@ 262
erwähnten 262
flowers 262
gebrochen 262
gewidmet 262
hence 262
instrum@@ 262
kombiniert 262
marriage 262
ough 262
protein 262
publish 262
radiation 262
schmerz@@ 262
sick 262
stab@@ 262
stands@@ 262
tes@@ 262
utes 262
wachsende 262
wind@@ 262
.net 261
Alters@@ 261
Brust@@ 261
Cast@@ 261
Eigenschaft 261
Entdeckung 261
Florida 261
Glück@@ 261
Klarheit 261
Konvention 261
Lamp@@ 261
Mängel 261
Rep@@ 261
Saudi 261
Sektors 261
Think 261
Tony 261
Uganda 261
Unterhaltung 261
Vorgehensweise 261
Wirtschaftspolitik 261
Zeitalter 261
addressing 261
affordable 261
beispiel@@ 261
berger 261
broader 261
continuously 261
dle 261
einstellen 261
fears 261
focusing 261
husband 261
häu@@ 261
inadequate 261
integrity 261
iron 261
nei@@ 261
nov@@ 261
oxygen 261
predict 261
probleme 261
proje@@ 261
propri@@ 261
schenken 261
schuldig 261
secre@@ 261
sport@@ 261
standardi@@ 261
stützt 261
symm@@ 261
tube 261
veri@@ 261
verrückt 261
viert 261
winner 261
yeah 261
übermitteln 261
Ashton 260
Beschränkungen 260
Es@@ 260
Fassung 260
Hen@@ 260
Ok 260
Ran@@ 260
Resolution 260
Richter 260
V-@@ 260
Verteidigungs@@ 260
anger 260
beibehalten 260
bud@@ 260
clinical 260
differenti@@ 260
fern@@ 260
festlegen 260
fuels 260
grid 260
ground@@ 260
initially 260
inspiration 260
intensiv 260
mente 260
mische 260
netz 260
porte 260
position@@ 260
riesi@@ 260
sektors 260
selts@@ 260
speciali@@ 260
starkes 260
tful 260
transform 260
umfangreiche 260
unterbrochen 260
vent 260
wissenschaften 260
12.00 259
Abbau 259
Anbetracht 259
BR@@ 259
CHF 259
Cab@@ 259
Chairman 259
Content 259
Docum@@ 259
Fang@@ 259
Gran@@ 259
Kreis 259
Maxim@@ 259
Raums 259
Som@@ 259
Stuttgart 259
Taus@@ 259
Text@@ 259
UNESCO 259
Under@@ 259
annten 259
bewiesen 259
capabilities 259
dual 259
eled 259
ende@@ 259
enorm 259
freu@@ 259
gle 259
gänge 259
hr 259
informal 259
insu@@ 259
ires 259
ling@@ 259
meets 259
muster 259
onie 259
petition 259
redund@@ 259
samkeit 259
satisfactory 259
scann@@ 259
selec@@ 259
shor@@ 259
short@@ 259
struck 259
studi@@ 259
threatened 259
treibt 259
vere 259
übt 259
180 258
Aktivi@@ 258
BI@@ 258
Boston 258
Durchschnitt 258
Essen@@ 258
Explorer 258
General@@ 258
Hung@@ 258
Labour 258
Landwirtschafts@@ 258
Lieferanten 258
PS@@ 258
Produktivität 258
Sequ@@ 258
Skla@@ 258
Sä@@ 258
academic 258
ago@@ 258
att 258
atta@@ 258
avec 258
beabsichtigt 258
brauchte 258
bug 258
cas 258
celebrate 258
clothing 258
combines 258
composition 258
elderly 258
geom@@ 258
gnis@@ 258
grafische 258
großzügi@@ 258
hunder@@ 258
iPod 258
ichtet 258
inspiriert 258
intern@@ 258
kostenlose 258
kte@@ 258
nachhaltig 258
offiziell 258
ool 258
paint 258
posts 258
references 258
shaped 258
stayed 258
technologische 258
transit 258
vollem 258
zugs@@ 258
Öko@@ 258
ökonomische 258
ügen 258
ür 258
Ahnung 257
Bruder 257
Bug@@ 257
Chancengleichheit 257
DS 257
Datei@@ 257
Eingang 257
Einsch@@ 257
Gegner 257
Gleiche 257
Intensi@@ 257
Kenya 257
Kolle@@ 257
Labor@@ 257
Left 257
Long 257
Medizin@@ 257
Mittelmeer@@ 257
Morton 257
Oliven@@ 257
Passwort 257
Satelliten@@ 257
Schrift@@ 257
Sol 257
Stattdessen 257
Vergnügen 257
acking 257
airlines 257
alling 257
astronom@@ 257
controlling 257
directions 257
essence 257
exemp@@ 257
foremost 257
fotografi@@ 257
gebäude 257
geliefert 257
gos 257
jun@@ 257
kus@@ 257
multip@@ 257
oppose 257
persi@@ 257
pic@@ 257
rain@@ 257
rede 257
relief 257
sozial@@ 257
stec@@ 257
strasse 257
unteren 257
usage 257
wertung 257
woo@@ 257
zentral 257
zy 257
ées 257
2nd 256
Amts@@ 256
Betriebe 256
Bewohner 256
Brief 256
Fortsetzung 256
Na 256
Pon@@ 256
Samm@@ 256
Ski 256
Unions@@ 256
Vereinigte 256
acker 256
aktu@@ 256
auseinander 256
broad@@ 256
checked 256
deserves 256
devoted 256
dien 256
dou@@ 256
dt 256
einführen 256
empfohlen 256
examined 256
exec@@ 256
fair@@ 256
gefährliche 256
gestatten 256
gewinnt 256
isolated 256
kredi@@ 256
kurzer 256
liebt 256
mirror 256
mon 256
mäß@@ 256
occurs 256
organiz@@ 256
prinzip 256
rem 256
sag@@ 256
schil@@ 256
sein@@ 256
sequence 256
stering 256
sweet 256
transformed 256
ume 256
unterscheidet 256
vereint 256
yl 256
zeuge 256
Ähn@@ 256
10.000 255
Aufnahmen 255
Ausnahmen 255
Bürokratie 255
Customer 255
Diplom@@ 255
Fron@@ 255
Fünf@@ 255
Gesetzgeb@@ 255
Große 255
IE@@ 255
IWF 255
Mitglied@@ 255
Mode 255
Net 255
Otherwise 255
Reaktionen 255
Roman@@ 255
Rückgang 255
Schwan@@ 255
Tool 255
Vogel@@ 255
alisi@@ 255
aufgaben 255
ausgeht 255
auswirken 255
begreifen 255
deeper 255
drängt 255
elektronische 255
emerge 255
erhoben 255
erleichtert 255
eth 255
facilit@@ 255
ffer 255
fän@@ 255
herausra@@ 255
inieren 255
mad 255
mehrfach 255
organisierte 255
par 255
pet@@ 255
ras@@ 255
remo@@ 255
sierungs@@ 255
sprüche 255
taus@@ 255
tigungs@@ 255
tolerance 255
typisch 255
unterschiedlicher 255
vierte 255
womit 255
Arena 254
Benutzung 254
E-@@ 254
Einzelheiten 254
Erst@@ 254
Hauptbahnhof 254
Katastrophen 254
Krebs@@ 254
Peace 254
Performance 254
Plätze 254
SL 254
Schau@@ 254
abstra@@ 254
ausdrück@@ 254
baute 254
bay 254
bedürf@@ 254
branch 254
emo@@ 254
entwerfen 254
füh@@ 254
gerechnet 254
geringer 254
hebt 254
horizontal 254
indicators 254
infra@@ 254
moreover 254
nü@@ 254
olive 254
onds 254
partial 254
permit 254
präzise 254
residents 254
respects 254
restored 254
sever@@ 254
stie@@ 254
terror 254
unt 254
versi@@ 254
wenigstens 254
wooden 254
öffentlicher 254
30. 253
About 253
Ansprüche 253
Arbeitnehmern 253
Betrieb@@ 253
Der@@ 253
Erreichung 253
Govern@@ 253
Gy@@ 253
Hein@@ 253
Herkunfts@@ 253
IM 253
KO@@ 253
Patten 253
Physik 253
Search 253
Steuer 253
Syria 253
Until 253
Whit@@ 253
abgeben 253
begründet 253
calendar 253
condemn 253
dire@@ 253
dogs 253
elegante 253
essor 253
foo@@ 253
größe 253
här@@ 253
in-@@ 253
inher@@ 253
insight 253
interact 253
kir@@ 253
legten 253
lüssel@@ 253
managers 253
missed 253
nannte 253
orientation 253
pig@@ 253
province 253
rad@@ 253
ral 253
refused 253
segment 253
sights 253
sovereign 253
spare 253
specialized 253
strateg@@ 253
tone 253
tägliche 253
zeß 253
Benutzer@@ 252
Cock@@ 252
FA@@ 252
Garantien 252
Gehminuten 252
Geschenk 252
Jag@@ 252
Joe 252
Liberalen 252
Original@@ 252
chi 252
convenience 252
demonstrates 252
designing 252
drinking 252
erlassen 252
fortsetzen 252
gerweise 252
gesunden 252
gewählten 252
höre 252
kohär@@ 252
lei 252
läufe 252
löst 252
maßen 252
prefer@@ 252
reale 252
sons 252
strand 252
trav@@ 252
ware@@ 252
zin 252
änderungen 252
è 252
.0@@ 251
2,000 251
A.@@ 251
Erfol@@ 251
Gebi@@ 251
Gefän@@ 251
Körpers 251
Mut@@ 251
Pack 251
Port@@ 251
Quell@@ 251
Sab@@ 251
Streit@@ 251
Versuch@@ 251
Vertrau@@ 251
Weihnachts@@ 251
Wort@@ 251
auseinander@@ 251
bewähr@@ 251
bloß 251
bringung 251
convert 251
debated 251
drucken 251
effek@@ 251
eingeleitet 251
empfin@@ 251
erb@@ 251
eria 251
hen@@ 251
ho 251
ima@@ 251
institution@@ 251
integr@@ 251
invisible 251
jährlichen 251
mien 251
oberen 251
overlooking 251
photography 251
piano 251
pit@@ 251
ple 251
plying 251
ppt 251
quasi 251
re-@@ 251
rice 251
schriftliche 251
schwier@@ 251
schönes 251
sy 251
tags 251
tangible 251
tant 251
trials 251
völ@@ 251
zah@@ 251
zesses 251
0s 250
BM@@ 250
Buchstaben 250
Einkommens@@ 250
Fahrzeug 250
Family 250
Gil@@ 250
Gutes 250
Hafen@@ 250
I. 250
Organization 250
Serbien 250
Suites 250
Sus@@ 250
TED-@@ 250
Vic@@ 250
advan@@ 250
biologischen 250
della 250
disc@@ 250
distinction 250
dium 250
dnis 250
dup@@ 250
hood 250
ille 250
industriellen 250
interven@@ 250
leistet 250
ligkeit 250
margin@@ 250
meaningful 250
norm@@ 250
organise 250
presidential 250
rating 250
rey 250
sensor 250
ship@@ 250
spezialisiert 250
sprechend 250
su 250
symp@@ 250
thorough 250
umb@@ 250
vorn 250
1,5 249
Ach@@ 249
Apart 249
Ass@@ 249
Ausweitung 249
Benjamin 249
Besu@@ 249
CI@@ 249
Fische 249
Israelis 249
Leipzig 249
Morocco 249
Nature 249
Plenar@@ 249
Verfolgung 249
Verletzungen 249
bir@@ 249
bürokrati@@ 249
casino 249
chens 249
defining 249
describes 249
einzig 249
erarbeitet 249
erheben 249
farms 249
fresh@@ 249
gebrachten 249
gebühr@@ 249
gerechtfertigt 249
lli@@ 249
manipul@@ 249
mithilfe 249
on-@@ 249
onic 249
pays 249
pione@@ 249
precious 249
rats 249
rechn@@ 249
rev@@ 249
tain@@ 249
unch 249
vil@@ 249
.ch 248
Anmerkungen 248
Anwendungs@@ 248
Autob@@ 248
Bearbeitung 248
Belastung 248
Did 248
Etik@@ 248
Events 248
Flü@@ 248
Gall@@ 248
Heizung 248
Konzepte 248
Kräften 248
Nachdruck 248
Patent 248
Rechner 248
Revision 248
Vermittlungs@@ 248
Wohnungen 248
Zell@@ 248
ación 248
authors 248
bloo@@ 248
connecting 248
deutet 248
dien@@ 248
ecks 248
einzel@@ 248
endgültige 248
entlichen 248
evalu@@ 248
felder 248
fisch@@ 248
fossi@@ 248
geführte 248
größter 248
hef@@ 248
incorpor@@ 248
isse 248
laser 248
loaded 248
paket 248
peak 248
robust 248
schli@@ 248
stücke 248
tagen 248
terer 248
timetable 248
titles 248
trains 248
tätigen 248
vary 248
wunderbar 248
zell@@ 248
Ale@@ 247
Bedien@@ 247
Betreuung 247
Country 247
DER 247
Fli@@ 247
Guinea 247
LateRooms.com 247
Leid 247
Leonardo 247
Netze 247
Olympic 247
Radio@@ 247
TM 247
Ticket 247
affung 247
anwen@@ 247
arro@@ 247
charm 247
custom 247
dan 247
diet 247
enes 247
erwähnte 247
gerechte 247
grüne 247
heu@@ 247
incentive 247
indicates 247
krebs 247
ktiv@@ 247
lagern 247
liqui@@ 247
moderni@@ 247
niedrigen 247
pensions 247
planung 247
postp@@ 247
ruf 247
secondary 247
sibility 247
technologie 247
therapeu@@ 247
tial 247
unlike 247
unterwegs 247
verarbeitet 247
weitaus 247
wärts 247
zahlungen 247
zusammenzu@@ 247
ßer 247
Š@@ 247
1960 246
Free@@ 246
Friedens 246
Fut@@ 246
Goo@@ 246
Hostel 246
Konzentration 246
Michel 246
Stephen 246
Vie@@ 246
Vir@@ 246
Vorrang 246
Wow 246
abor@@ 246
aggressive 246
architectural 246
auswählen 246
autumn 246
azz@@ 246
bac@@ 246
bewertet 246
dargelegt 246
deadline 246
eries 246
fought 246
hunderte 246
leihen 246
listened 246
mature 246
occupation 246
paintings 246
panoramic 246
plur@@ 246
sional 246
specialists 246
stän@@ 246
superior 246
thir@@ 246
ull 246
vertritt 246
west@@ 246
wire 246
wr@@ 246
xis 246
zugelassen 246
zwanzig 246
Anmeldung 245
Az@@ 245
Cookies 245
EP@@ 245
Fir@@ 245
Innenstadt 245
M. 245
MI@@ 245
Mittwoch 245
PE 245
Pit@@ 245
Siemens 245
Tauch@@ 245
Vertrieb@@ 245
Visi@@ 245
Zeitplan 245
accuracy 245
architect 245
blame 245
codecision 245
collec@@ 245
defense 245
denselben 245
desert 245
eien 245
fan 245
finger 245
fires 245
flies 245
hohes 245
icon 245
ignorieren 245
jointly 245
keit@@ 245
kunden 245
landschaft 245
loans 245
negotiated 245
professionellen 245
reichhal@@ 245
sister 245
sizes 245
stige 245
structured 245
tiven 245
tti 245
vorsichtig 245
wahrnehmen 245
wich 245
Airlines 244
Altern@@ 244
Ausbau 244
BF 244
Dokumentation 244
Hör@@ 244
Konferenz@@ 244
Kuba 244
Maus 244
Original 244
Palette 244
Schnell@@ 244
Southern 244
Speisen 244
Wiederherstellung 244
XP 244
Zimmerbeschreibung 244
absol@@ 244
age@@ 244
alisten 244
analysieren 244
artig 244
baus 244
bedienen 244
betrieb 244
childhood 244
degra@@ 244
delete 244
desper@@ 244
digte 244
eigentlichen 244
elf 244
engineer 244
erarbeiten 244
existed 244
favourable 244
feiern 244
finanzierung 244
gekauft 244
html 244
ility 244
kilometres 244
kleineren 244
lica 244
lying 244
navigation 244
perception 244
rum@@ 244
runter 244
schutzes 244
schöner 244
stische 244
tch 244
totali@@ 244
urlaub 244
verglichen 244
verschmutzung 244
verurteilen 244
victim 244
visits 244
weigh@@ 244
ystem 244
zeugen 244
ästhe@@ 244
Biologie 243
Block@@ 243
Bosnien 243
CO 243
Darwin 243
Erweiter@@ 243
External 243
Fabri@@ 243
Force 243
Fremden@@ 243
Für@@ 243
Gebühren 243
Guests 243
Ky@@ 243
SK 243
Terms 243
Türen 243
ample 243
angekündigt 243
angewiesen 243
asset 243
ause 243
bearbeiten 243
bureaucracy 243
camp@@ 243
care@@ 243
clicking 243
divide 243
eintreten 243
enjoys 243
enne 243
gebenen 243
geber 243
gegenseitigen 243
geringe 243
ight 243
kräften 243
kö@@ 243
refuse 243
representing 243
ritt 243
sement 243
them@@ 243
tism 243
voran 243
1987 242
Arts 242
Chemikalien 242
Ech@@ 242
Il@@ 242
Leben@@ 242
MT 242
Mart@@ 242
Meinungen 242
Organis@@ 242
Partnership 242
Produzenten 242
Saison 242
Small 242
Treib@@ 242
US-@@ 242
Verwal@@ 242
civilian 242
conciliation 242
discipline 242
educ@@ 242
eme 242
evaluate 242
extin@@ 242
foods 242
geeigneten 242
hes 242
iker 242
intervene 242
magnetic 242
mechanismus 242
neutral 242
nötigen 242
ons@@ 242
paths 242
personen 242
preferred 242
präsen@@ 242
regimes 242
rom@@ 242
staates 242
stuck 242
suggestion 242
textile 242
thaus 242
trags@@ 242
unemployed 242
univers@@ 242
110 241
61 241
Dach 241
Hunger 241
Jugendliche 241
Kapazität 241
Library 241
MO 241
Menschenrechtsverletzungen 241
Micro@@ 241
Migration 241
Out 241
Residen@@ 241
Rock@@ 241
Schie@@ 241
Trends 241
Verheugen 241
Viren 241
Water 241
Zuhause 241
aded 241
akes 241
alu@@ 241
annte 241
black@@ 241
characteristic 241
chenen 241
cles 241
controversial 241
ehemalige 241
ernsthafte 241
fat 241
fin 241
findings 241
flag 241
granting 241
issen 241
mengen 241
primi@@ 241
pris@@ 241
quelle 241
respektiert 241
rest@@ 241
retro@@ 241
seitdem 241
servers 241
sist@@ 241
skep@@ 241
soviel 241
st-@@ 241
ston 241
systematic 241
teilzunehmen 241
terung 241
transitional 241
urop@@ 241
verzeichnen 241
vorliegen 241
worfen 241
25. 240
Büros 240
Côte 240
Demo@@ 240
Erfolgs@@ 240
Filter 240
IK@@ 240
Jackson 240
Jahrzehnt 240
Osteuropa 240
Patient 240
Resultat 240
Spannungen 240
Strasse 240
Venezuela 240
Vorgän@@ 240
advis@@ 240
aktuell 240
alleg@@ 240
angebot 240
ao 240
aufgestellt 240
bees 240
belt 240
bilder 240
bonds 240
demonstration 240
dition 240
einsei@@ 240
enemy 240
generous 240
gging 240
gü@@ 240
hafter 240
io 240
irgendeine 240
kes@@ 240
kritisiert 240
langem 240
ligung 240
lla 240
logi@@ 240
mitting 240
odi@@ 240
ofs 240
organs 240
particles 240
patri@@ 240
random 240
ref@@ 240
rupt 240
sexuellen 240
standes 240
tary 240
technischer 240
var@@ 240
vereinbarten 240
zentrali@@ 240
zweimal 240
ältere 240
örung 240
ürzt 240
79 239
ALE 239
Anders 239
Arti@@ 239
Chef 239
Erste 239
FI 239
FO@@ 239
GT@@ 239
Heads 239
IBM 239
Inflation 239
Maßstab 239
Mü@@ 239
Organismen 239
Product 239
Programmi@@ 239
ROM 239
Rural 239
Schulden 239
Scotland 239
Super 239
Sz@@ 239
Weiß@@ 239
Wich@@ 239
Zürich 239
amending 239
anony@@ 239
assem@@ 239
ball@@ 239
benen 239
beteiligten 239
brau@@ 239
considerations 239
dbar 239
dom 239
eingeschränkt 239
ekt 239
emit@@ 239
entrepreneurs 239
gewöhnliche 239
gia 239
guard 239
harte 239
hielten 239
illustr@@ 239
iti 239
konvention@@ 239
kost@@ 239
liquid 239
methode 239
milit@@ 239
plug 239
promoted 239
schränken 239
schungen 239
schwedischen 239
tains 239
tat@@ 239
travelling 239
ulen 239
vac@@ 239
verbracht 239
verpflichten 239
02@@ 238
31. 238
Beurteilung 238
Det@@ 238
Dou@@ 238
Fremdenverkehr 238
Gan@@ 238
Hea@@ 238
Hop@@ 238
Karl 238
Kie@@ 238
Moscow 238
Professional 238
Unsicherheit 238
Zwischen 238
basieren 238
beabsichti@@ 238
begünsti@@ 238
calcul@@ 238
chtigen 238
copying 238
erfasst 238
ermutigen 238
erstaun@@ 238
europ@@ 238
fate 238
geniessen 238
griffe 238
herunterladen 238
hiking 238
jah@@ 238
klär@@ 238
mentation 238
mom 238
mug@@ 238
phan@@ 238
professor 238
promising 238
regionaler 238
scri@@ 238
spots 238
tent 238
treas@@ 238
umfassen 238
univer@@ 238
ät 238
ätzen 238
Bast 237
Bestätigung 237
Dop@@ 237
Durchsetzung 237
Empire 237
Entstehung 237
Erkenntnisse 237
GE 237
Galileo 237
Growth 237
Inc 237
Kongress 237
Kürze 237
LED 237
Lee 237
Mails 237
Mann@@ 237
Milosevic 237
PH@@ 237
Rub@@ 237
Speicher@@ 237
agrees 237
anzugehen 237
belongs 237
brü@@ 237
calm 237
condem@@ 237
depression 237
durchschnittliche 237
errichten 237
expressly 237
fare 237
freund@@ 237
gebnisse 237
hire 237
kehr 237
konsequent 237
laugh@@ 237
lernt 237
lifestyle 237
mechanismen 237
meldung 237
molecules 237
morgens 237
negativ 237
onom@@ 237
oria 237
professionelle 237
sailing 237
schwäch@@ 237
signi@@ 237
staying 237
stret@@ 237
thro@@ 237
tnis@@ 237
verantwor@@ 237
verbindung 237
verwal@@ 237
wies 237
Überleben 237
Basel 236
Clinton 236
Erbe 236
Erwägung 236
Firefox 236
Inn@@ 236
Kontin@@ 236
Mallorca 236
Ministry 236
Pho@@ 236
Steigerung 236
Verbrauchern 236
Wohnzimmer 236
Zuständigkeiten 236
aking 236
arity 236
befu@@ 236
beruhen 236
biologische 236
cheaper 236
citizenship 236
confident 236
demokrati@@ 236
die@@ 236
einnehmen 236
erheblichen 236
failing 236
fairen 236
figh@@ 236
flexibel 236
focuses 236
fusion 236
geladen 236
inclusive 236
integrierte 236
invested 236
liefer@@ 236
lierung 236
o-@@ 236
pflan@@ 236
prevented 236
probieren 236
ranten 236
realistisch 236
rel 236
remin@@ 236
schwe@@ 236
spektakul@@ 236
splendid 236
teeth 236
thin@@ 236
thos 236
twi@@ 236
ux 236
vermieden 236
weit@@ 236
1108408 235
1985 235
7,@@ 235
Afrikas 235
Aktionsp@@ 235
CR@@ 235
Congo 235
Email 235
Eric 235
Export@@ 235
HT@@ 235
Industrial 235
Kongo 235
Marokko 235
Nerven@@ 235
Wett@@ 235
agers 235
ario 235
assigned 235
becken 235
brand@@ 235
brenn@@ 235
coura@@ 235
d.@@ 235
ems 235
fig 235
geistigen 235
geringen 235
gesetz 235
globaler 235
hüb@@ 235
innovativen 235
jurisdiction 235
kreu@@ 235
laboratory 235
litten 235
lägen 235
manifest@@ 235
mig@@ 235
miß@@ 235
prüf@@ 235
retail 235
shock 235
stätten 235
touched 235
verdeut@@ 235
verpflich@@ 235
wandeln 235
ña 235
Actually 234
Anwesenheit 234
Biom@@ 234
Brot 234
Bürgerbeauftragten 234
Ce@@ 234
Ev@@ 234
Exper@@ 234
Fokus 234
Fro@@ 234
HD 234
Indem 234
Kalifornien 234
Mischung 234
Sri 234
Urlaubs@@ 234
Vin@@ 234
Wach@@ 234
Zimbabwe 234
Zuge@@ 234
ateg@@ 234
basierte 234
bezogen 234
boundaries 234
brauche 234
challenging 234
contra@@ 234
distor@@ 234
dunk@@ 234
fulfilled 234
geld 234
glu@@ 234
herz@@ 234
höh@@ 234
jüngste 234
minimal 234
rem@@ 234
rom 234
sexuelle 234
signature 234
speeches 234
trinken 234
tut@@ 234
two-@@ 234
verabschieden 234
zeichneten 234
zio 234
zugestimmt 234
ätzt 234
Alzheimer 233
Beamten 233
Betreiber 233
Ble@@ 233
Brown 233
But@@ 233
Dun@@ 233
EX@@ 233
Gewinner 233
Ideal 233
Index 233
Indonesia 233
Meister@@ 233
Part 233
Press@@ 233
Read 233
Residence 233
Spit@@ 233
Stamm@@ 233
Unterkünfte 233
Watson 233
aching 233
ade@@ 233
alled 233
ambition 233
ames 233
angenommenen 233
anna 233
ausländischen 233
bon 233
catalogue 233
chtern 233
coordinate 233
ebo@@ 233
ehr 233
expanded 233
fertili@@ 233
fet@@ 233
forming 233
genetically 233
günstige 233
hall@@ 233
halten@@ 233
het 233
keiten 233
kultur 233
lens 233
obligator@@ 233
olas 233
ousness 233
posted 233
preserved 233
renewed 233
tar 233
tioned 233
tonight 233
tot 233
verständnis 233
verteilung 233
verwirklichen 233
wertvolle 233
zunehmende 233
Access 232
Begründung 232
Casa 232
Chaos 232
Dok@@ 232
Erarbeitung 232
Henry 232
Lebensmittelsicherheit 232
Rassismus 232
Strände 232
Team@@ 232
Zufriedenheit 232
akadem@@ 232
amb@@ 232
angenehme 232
ap 232
austau@@ 232
backs 232
begangen 232
bereit@@ 232
bevölkerung 232
bou@@ 232
chro@@ 232
civilization 232
comparable 232
consistently 232
demographic 232
drin 232
dum@@ 232
durchzusetzen 232
ele@@ 232
endor@@ 232
ensu@@ 232
erei@@ 232
err@@ 232
erwerben 232
fic 232
graduate 232
graph@@ 232
gründete 232
guaranteeing 232
hills 232
hörige 232
installations 232
isten 232
lagerung 232
planets 232
power@@ 232
publicly 232
quet 232
sib@@ 232
staat@@ 232
torate 232
transfer@@ 232
translate 232
uen 232
ungere@@ 232
unmittelbarer 232
vili@@ 232
younger 232
zur@@ 232
ý 232
5.000 231
Andalu@@ 231
Bureau 231
Eigentlich 231
Erzäh@@ 231
Export 231
Garten@@ 231
Gates 231
Geno@@ 231
Kompetenzen 231
Lebanon 231
Leu@@ 231
Lizenz@@ 231
Luxus 231
Messe@@ 231
Metall@@ 231
Metern 231
Näch@@ 231
Portal 231
Reinigung 231
Roo@@ 231
SCH@@ 231
Stein 231
Universums 231
VE 231
Wikitravel 231
Yugoslavia 231
Zit@@ 231
ague 231
arme 231
astic 231
bathrooms 231
caf@@ 231
cos 231
declare 231
dei 231
direc@@ 231
disch 231
dit 231
dringen 231
ecken 231
einziges 231
engen 231
erre@@ 231
gewalt@@ 231
gross@@ 231
heavily 231
hinterlassen 231
ignored 231
jump 231
maker 231
maximal 231
oud 231
ratio 231
rubber 231
saß 231
schäd@@ 231
sender 231
shapes 231
taxi 231
tropical 231
ttert 231
verwandelt 231
view@@ 231
vollständi@@ 231
vorkommen 231
wages 231
ysi@@ 231
án@@ 231
ök@@ 231
Amerikan@@ 230
Beschwerden 230
Café 230
Charak@@ 230
Copyright 230
Derzeit 230
Drittstaaten 230
Gui@@ 230
Infe@@ 230
Jur@@ 230
Lul@@ 230
Ministerpräsident 230
Problematik 230
Sat@@ 230
Schwar@@ 230
Sicher@@ 230
Tam@@ 230
Verabschiedung 230
acknowled@@ 230
amenities 230
apparent 230
aufeinander 230
betriebe 230
credible 230
disputes 230
ech@@ 230
estimates 230
exten@@ 230
favor@@ 230
fertigung 230
funktionen 230
gegebenenfalls 230
genießt 230
halbe 230
hinein@@ 230
hochwertigen 230
hop 230
höch@@ 230
ij@@ 230
instrumente 230
invent@@ 230
irgendeiner 230
iring 230
krieg@@ 230
lehnen 230
necessity 230
parlamentarischen 230
privileged 230
produkten 230
prozess 230
sens@@ 230
shr@@ 230
strebt 230
var 230
wolle 230
zel 230
п@@ 230
у@@ 230
1970 229
Bezeichnung 229
Demokrati@@ 229
Einschränkungen 229
Event 229
Georgien 229
Gleichheit 229
Haushalte 229
Lar@@ 229
Minister@@ 229
Mobil@@ 229
Neuigkeiten 229
Rahmenbedingungen 229
Sac@@ 229
Van@@ 229
archive 229
atte 229
beiträgt 229
bewus@@ 229
dat 229
dentally 229
emis@@ 229
englischen 229
erfol@@ 229
expressing 229
formuliert 229
gefühl 229
gerung 229
globe 229
grass 229
ielle 229
imposing 229
influ@@ 229
integrieren 229
komfortable 229
lem 229
lokaler 229
motiv@@ 229
notified 229
perform@@ 229
progressive 229
question@@ 229
reci@@ 229
staatlicher 229
struc@@ 229
stö@@ 229
tips 229
tracking 229
trennen 229
unglück@@ 229
uph@@ 229
verwiesen 229
worüber 229
überwacht 229
Abteilung 228
Baum 228
Bedingung 228
Beschäftigten 228
Chan@@ 228
Feststellung 228
Frühstücksbuffet 228
Geheimnis 228
Gum@@ 228
Holland 228
Justiz@@ 228
Kooperations@@ 228
Künst@@ 228
Les 228
Lev@@ 228
Rechen@@ 228
Rechnungshof 228
Seattle 228
Snow@@ 228
Verfahrens 228
Wahrung 228
Wäh@@ 228
Zusammensetzung 228
alarm 228
alise 228
ature 228
aul@@ 228
ausgesch@@ 228
certainty 228
commerce 228
conversion 228
counts 228
einzugehen 228
electronics 228
endung 228
gesunde 228
glam@@ 228
graf@@ 228
gui@@ 228
handels@@ 228
heb@@ 228
hungen 228
irgendwelche 228
kit 228
kurse 228
let@@ 228
renoviert 228
rose 228
schließe 228
schwarzen 228
senses 228
tert 228
thr@@ 228
transfers 228
vi 228
zier@@ 228
zwischen@@ 228
Ash@@ 227
FC 227
Lad@@ 227
Rücken 227
SDL 227
arranged 227
beschei@@ 227
book@@ 227
bücher 227
choosing 227
cross@@ 227
dent@@ 227
eig@@ 227
einstimmig 227
erteilen 227
examination 227
fed 227
frau 227
gastronom@@ 227
gesundheits@@ 227
herunter 227
ign@@ 227
kehren 227
key@@ 227
ktiver 227
lining 227
nötige 227
ost@@ 227
practically 227
revealed 227
ror 227
schein@@ 227
sier@@ 227
stein@@ 227
toilet 227
uneingeschränkt 227
zerstör@@ 227
ziel 227
Öffent@@ 227
Alber@@ 226
Aufhebung 226
Ausbeutung 226
Beglei@@ 226
Flughaf@@ 226
Gali@@ 226
Ganzen 226
Hund 226
Lehre 226
Pflege 226
Plas@@ 226
Pur@@ 226
Ray 226
Reichtum 226
Representative 226
Rußland 226
SW@@ 226
Schre@@ 226
Several 226
Travel 226
acken 226
alike 226
alisti@@ 226
ausgeben 226
autom@@ 226
borne 226
chers 226
contributing 226
curious 226
dop@@ 226
ernste 226
facto 226
globally 226
günstig 226
illness 226
kritisch 226
lassung 226
lowest 226
medieval 226
modify 226
ordnungsgemäß 226
regulate 226
reibungs@@ 226
scop@@ 226
silver 226
stren@@ 226
streng 226
summar@@ 226
venture 226
vierten 226
å@@ 226
Abenteuer 225
Automobil@@ 225
Baby@@ 225
Bergen 225
Clubs 225
Distri@@ 225
Formulierung 225
Gru@@ 225
Jack 225
Kredi@@ 225
NE@@ 225
Nam@@ 225
Nutzungs@@ 225
Parks 225
Presidents 225
Sogar 225
Spaziergang 225
Syrien 225
Zielsetzungen 225
abgegeben 225
ali 225
bat@@ 225
befrie@@ 225
beruflichen 225
chief 225
coinci@@ 225
expanding 225
fahrts@@ 225
fits 225
garanti@@ 225
gefangen 225
gelingen 225
gestal@@ 225
halb@@ 225
intim@@ 225
justify 225
ktivität 225
mers 225
nahme@@ 225
projekt 225
pushing 225
ram 225
rescue 225
sauber 225
schol@@ 225
shing 225
spanische 225
teilungen 225
threshold 225
tiefe 225
unfortunate 225
verbindlich 225
weis@@ 225
zeichnung 225
Übereinkommens 225
.-@@ 224
1988 224
Autoren 224
Außenminister 224
Beine 224
Büro@@ 224
Cross 224
Democratic 224
Einzelnen 224
Finanzen 224
Ima@@ 224
Iranian 224
J. 224
Jones 224
Kei@@ 224
Krieg@@ 224
Lied 224
Nachbarschaft 224
Nero 224
Safe 224
Sky@@ 224
Tendenz 224
Vermögens@@ 224
bahnen 224
bedenken 224
brech@@ 224
certified 224
duration 224
edited 224
embedded 224
erforderliche 224
fangs 224
hospitals 224
ichten 224
inary 224
intermedi@@ 224
jung@@ 224
konzep@@ 224
leather 224
mandatory 224
monum@@ 224
nier 224
orienti@@ 224
photograph@@ 224
plant@@ 224
psychological 224
quantity 224
ques@@ 224
ranken 224
revised 224
schar@@ 224
schwarze 224
steu@@ 224
strengen 224
therap@@ 224
versus 224
worker 224
zeichnungen 224
zips 224
österreichischen 224
übergreif@@ 224
1945 223
2-@@ 223
Bat@@ 223
Bit@@ 223
Datenschutz 223
Kapit@@ 223
Listen 223
Maj@@ 223
Merkmale 223
Moh@@ 223
Momente 223
Muslims 223
Press 223
Samstag 223
Slovakia 223
Sports 223
Trä@@ 223
Valencia 223
Village 223
aboli@@ 223
adel@@ 223
aked 223
amin 223
automotive 223
bewahrt 223
blauen 223
blä@@ 223
branches 223
camps 223
cat 223
cit@@ 223
criminals 223
defen@@ 223
deutliche 223
developers 223
drück@@ 223
entscheidet 223
financed 223
fühl@@ 223
gn 223
identifizieren 223
ignoriert 223
inal 223
inequality 223
inning 223
kennen@@ 223
lock@@ 223
läne 223
machinery 223
max 223
minor 223
need@@ 223
nutri@@ 223
orientierten 223
politiken 223
reis@@ 223
ruling 223
schlage 223
spie@@ 223
studieren 223
subsi@@ 223
territories 223
til@@ 223
unterhalten 223
utt@@ 223
vermis@@ 223
versicherung 223
vine 223
wenigsten 223
wunderbaren 223
xen 223
500@@ 222
Allah 222
Anzeige 222
Ausgrenzung 222
Betrug 222
Darin 222
Einnahmen 222
Evalu@@ 222
History 222
Insgesamt 222
Kapazitäten 222
Kari@@ 222
Konflikt@@ 222
Kreuz@@ 222
Literatur 222
Millennium 222
Palästinenser 222
Reich 222
Sonn@@ 222
Therap@@ 222
Wichtig 222
Wille 222
Zurich 222
acquire 222
alistische 222
anzuzeigen 222
arians 222
ausmachen 222
bezogene 222
buchstäblich 222
circuit 222
circul@@ 222
clothes 222
dioxide 222
engagement 222
enhan@@ 222
erfolgreich@@ 222
erneuerbaren 222
exposure 222
extre@@ 222
fications 222
freight 222
gefährlichen 222
glei@@ 222
hero 222
infl@@ 222
ira 222
licht@@ 222
lingen 222
llen 222
mün@@ 222
neighborhood 222
noon 222
para@@ 222
porte@@ 222
precision 222
raises 222
real@@ 222
searching 222
sex@@ 222
shots 222
spir@@ 222
suited 222
tariat 222
untersch@@ 222
и 222
170 221
AV 221
Anweisungen 221
Ay@@ 221
Beschluß 221
Bestellungen 221
Binnen@@ 221
Blu@@ 221
Brok 221
Dim@@ 221
Entwickler 221
Fischereipolitik 221
Fried@@ 221
Geträn@@ 221
Governance 221
Güter 221
Investition 221
PAR@@ 221
Palma 221
Pos@@ 221
Schwester 221
Unterstütz@@ 221
Volkswirtschaften 221
Youth 221
Zunahme 221
al-@@ 221
bearbeitet 221
bottle 221
breach 221
confusion 221
demonstr@@ 221
deser@@ 221
disappointed 221
ennung 221
enttäuscht 221
etabli@@ 221
foot@@ 221
gang@@ 221
hearts 221
ican 221
locate 221
measurement 221
memories 221
musst 221
outset 221
principal 221
projekte 221
prospect 221
publishing 221
relaxed 221
residential 221
ritten 221
s- 221
shooting 221
stehe 221
stipul@@ 221
stun@@ 221
suchte 221
tas 221
tribute 221
ubs 221
undertake 221
veränderte 221
width 221
withdrawal 221
zerti@@ 221
24. 220
300@@ 220
Anwen@@ 220
Ausblick 220
BA 220
Dimensionen 220
Gay 220
Hi 220
Hig@@ 220
KG 220
Klassi@@ 220
Krä@@ 220
Ms 220
Mütter 220
Nizza 220
OS@@ 220
Quadrat@@ 220
Quo@@ 220
SAP 220
Stahl 220
Sto@@ 220
Stress 220
Südo@@ 220
Tradi@@ 220
Transfer 220
Warcraft 220
Weltbank 220
arab@@ 220
arrangement 220
assungen 220
atmosp@@ 220
aufgeführt 220
batt@@ 220
boasts 220
breaks 220
civili@@ 220
crossing 220
dun@@ 220
eks 220
ethnischen 220
fach 220
honest@@ 220
inter 220
krie@@ 220
lio 220
malen 220
mie@@ 220
plain 220
protest 220
qualities 220
reads 220
regen 220
rela@@ 220
returns 220
sozial 220
spiritual 220
taxpayers 220
tschaft 220
tür@@ 220
verstärkte 220
versuchten 220
veter@@ 220
zusammenzuarbeiten 220
äd@@ 220
öffent@@ 220
Bestell@@ 219
Bridge 219
Depression 219
Ernährungs@@ 219
Istanbul 219
Jungs 219
League 219
Lon@@ 219
Lux@@ 219
Pfund 219
Reden 219
Renaissance 219
Slowakei 219
Wettbewer@@ 219
Wünschen 219
activate 219
affili@@ 219
amaz@@ 219
anst@@ 219
ausführen 219
bedauere 219
birthday 219
dental 219
eignen 219
enced 219
erische 219
etz 219
förderung 219
geachtet 219
gemeinsamer 219
geplanten 219
gewöhnlich 219
glichkeit 219
gotten 219
gutem 219
günstigen 219
handled 219
identical 219
igungen 219
ja@@ 219
kritische 219
leiden@@ 219
mand@@ 219
nik 219
packen 219
red@@ 219
rene@@ 219
responses 219
samples 219
sech@@ 219
sheets 219
socially 219
speich@@ 219
sprü@@ 219
stün@@ 219
stützen 219
tonnes 219
treaties 219
tto 219
utter 219
vernünftig 219
verzichten 219
volcan@@ 219
ökologische 219
Aff@@ 218
Anla@@ 218
Arznei@@ 218
Bekann@@ 218
Dresden 218
Empfänger 218
Finnish 218
Fla@@ 218
Grundsätzen 218
I.@@ 218
Il 218
Komplettpreise 218
Krisen 218
Lebensmitteln 218
Lohn@@ 218
Menschenrechten 218
Monte 218
Nobel 218
Prof. 218
SC 218
Schrif@@ 218
TER 218
Tol@@ 218
VIP 218
Vent@@ 218
Verluste 218
Verlängerung 218
ablehnen 218
attended 218
ausreich@@ 218
benannt 218
bill 218
breit 218
burn 218
chocolate 218
claimed 218
contractual 218
converted 218
counting 218
day@@ 218
decent 218
derjenigen 218
dez 218
dust 218
eingeräumt 218
fertig@@ 218
gif@@ 218
gäste 218
ices 218
inevitable 218
innen@@ 218
institute 218
investing 218
kampf 218
kins 218
ots 218
parent 218
perspectives 218
pharmaceutical 218
picked 218
replacement 218
schnit@@ 218
springen 218
strah@@ 218
sus 218
tali@@ 218
torture 218
trug 218
ul 218
ulated 218
verliert 218
vez 218
vorgehen 218
vorsieht 218
zuverlässi@@ 218
ähren 218
ön 218
örtlichen 218
üben 218
-up 217
Administr@@ 217
Antonio 217
Appartement 217
Ausübung 217
Cin@@ 217
D-@@ 217
Damals 217
EF 217
Eco@@ 217
Fif@@ 217
Flüssi@@ 217
Himm@@ 217
Imp@@ 217
Km 217
Light 217
Prävention 217
Sah@@ 217
Schulden@@ 217
Solche 217
Subject 217
Ursprung 217
Wissens@@ 217
Zufall 217
ached 217
ausreichende 217
deu@@ 217
för@@ 217
greg@@ 217
handed 217
hip 217
klo@@ 217
lady 217
lasst 217
mitglie@@ 217
moderner 217
nee@@ 217
newspapers 217
orn 217
rechtfertigen 217
schrittweise 217
schwerer 217
separated 217
splan@@ 217
sprodu@@ 217
stechn@@ 217
stered 217
thoroughly 217
timely 217
tip 217
toxic 217
typische 217
ungeachtet 217
urity 217
verschaffen 217
verschle@@ 217
versetzt 217
worlds 217
xe 217
Anträge 216
Besuchen 216
Chr@@ 216
Emotionen 216
End 216
Fans 216
Fehlen 216
Formul@@ 216
Gewinne 216
Hall@@ 216
Individuen 216
Innovations@@ 216
Kurse 216
LAN 216
Module 216
Quoten 216
Similarly 216
Spezialitäten 216
Still@@ 216
TEN 216
accessories 216
acquisition 216
angem@@ 216
banken 216
cancellation 216
chat 216
chtig 216
composed 216
dges 216
drafting 216
endete 216
entdeckte 216
entreprene@@ 216
eo 216
erweisen 216
erörtert 216
esischen 216
etrie 216
fav@@ 216
fossil 216
gebühren 216
geni@@ 216
genome 216
geteilt 216
globalization 216
grenzüberschreitenden 216
instruc@@ 216
iss 216
kriegen 216
lasen 216
manufactured 216
nfalls 216
nischen 216
occupied 216
olds 216
ologe 216
pan 216
provi@@ 216
rolling 216
schlag@@ 216
see@@ 216
senior 216
signing 216
ssed 216
technologischen 216
theatre 216
theorie 216
tian 216
transaction 216
unanimously 216
unvermei@@ 216
ution 216
verliehen 216
vertra@@ 216
vie@@ 216
vieren 216
vorliegt 216
vorüber@@ 216
wünschte 216
xel 216
östlichen 216
Account 215
Auff@@ 215
BS 215
Betroffenen 215
CH 215
DR@@ 215
Dame 215
Funktionieren 215
Gehen 215
Ghana 215
Kenntnisse 215
Last@@ 215
Ltd 215
Missbrauch 215
Montenegro 215
Monti 215
Peri@@ 215
Prag 215
Prot@@ 215
Rennen 215
Wirt@@ 215
abhängi@@ 215
after@@ 215
ares 215
arrange 215
belonging 215
berühm@@ 215
beurteilen 215
cancelled 215
cker@@ 215
copies 215
deficits 215
discount 215
dramatically 215
eding 215
eggs 215
eindeutige 215
erstreckt 215
gefahren 215
gin 215
gues 215
hou@@ 215
hunger 215
ingu@@ 215
jet 215
journalist 215
kommerziellen 215
leichte 215
lium 215
nem 215
nett 215
pa 215
passive 215
qualifications 215
rac@@ 215
recession 215
seed 215
station@@ 215
steuer 215
strenge 215
talent 215
terri@@ 215
unstable 215
vernachlässi@@ 215
wanderung 215
zugute 215
ökonom@@ 215
CDs 214
Chinesen 214
Consi@@ 214
Dikt@@ 214
Einschränkung 214
Einschätzung 214
Erzeuger 214
Etwas 214
Mary 214
Mobili@@ 214
Modern 214
Mount 214
Mund 214
Queen 214
Section 214
Socialists 214
Spek@@ 214
Spen@@ 214
Swi@@ 214
Szene 214
Tä@@ 214
W. 214
Zusammen 214
accompli@@ 214
adjust 214
anstelle 214
attract 214
avi@@ 214
befürwortet 214
beleu@@ 214
digten 214
distant 214
effizienten 214
esa 214
eve 214
exo@@ 214
hard@@ 214
harmony 214
henden 214
influenced 214
koordini@@ 214
lea@@ 214
lüssen 214
ministerium 214
mitzu@@ 214
mäßigkeit 214
mündlichen 214
nich@@ 214
notably 214
orien 214
paraly@@ 214
plä@@ 214
prestigious 214
realisieren 214
religi@@ 214
reward 214
risk@@ 214
six@@ 214
snow@@ 214
subsidi@@ 214
transpar@@ 214
turing 214
verkauf@@ 214
vibr@@ 214
vielfältigen 214
worauf 214
Äußerungen 214
Übernahme 214
überein@@ 214
Гј@@ 214
е 214
57@@ 213
DN@@ 213
Designs 213
Erdbeben 213
Experience 213
Flugzeuge 213
Galerie 213
Gaz@@ 213
Gebir@@ 213
Greens 213
Hektar 213
Konkurrenz 213
Nothing 213
Pad@@ 213
Panoram@@ 213
Pension 213
Rechn@@ 213
Ron@@ 213
SY@@ 213
Speich@@ 213
Start@@ 213
Ten@@ 213
Terr@@ 213
Tuesday 213
Verkaufs@@ 213
Vertrieb 213
Verzeichnis 213
abilität 213
ahl 213
beizutragen 213
bestände 213
bid 213
broke 213
denti@@ 213
diesmal 213
ebene 213
ef 213
einzigartig 213
enburg 213
fis@@ 213
gay 213
grain 213
inakzeptabel 213
industrielle 213
ller 213
militär@@ 213
normen 213
officially 213
oma 213
plac@@ 213
ras 213
reck@@ 213
relevanten 213
schicht 213
sear@@ 213
sharp 213
shouldn 213
spac@@ 213
spreading 213
thetic 213
tox@@ 213
verwir@@ 213
visuellen 213
weiterzu@@ 213
änderung 213
1967 212
Asi@@ 212
Aufzug 212
Bud@@ 212
Clearly 212
Einwanderer 212
Ereignissen 212
Experimente 212
Feld@@ 212
Flug 212
Friendly 212
Miet@@ 212
Norway 212
Referendum 212
Reserv@@ 212
Schaf@@ 212
Schutzes 212
Spi@@ 212
Strategi@@ 212
Studien@@ 212
UL@@ 212
Unterlagen 212
Weile 212
Wikicars 212
accordingly 212
ahr@@ 212
amps 212
authorised 212
befin@@ 212
berge 212
beschließen 212
bra 212
cam 212
dali@@ 212
drücke 212
elem@@ 212
encing 212
eted 212
founding 212
gaining 212
geehrte 212
gigan@@ 212
habit@@ 212
hoping 212
irgendetwas 212
israelischen 212
kommun@@ 212
künfte 212
langes 212
langfristigen 212
lear@@ 212
lively 212
mail@@ 212
mani@@ 212
mium 212
orange 212
polnischen 212
proce@@ 212
procurement 212
ressourcen 212
sendet 212
stitution 212
tex 212
tue 212
unities 212
weich@@ 212
wichti@@ 212
ér@@ 212
überraschend 212
übersetzt 212
Andre@@ 211
Ausbildungs@@ 211
Behin@@ 211
Beratungen 211
Cher@@ 211
Chief 211
Communist 211
Gefan@@ 211
Gegenden 211
Intervention 211
Jan 211
Kevin 211
Musiker 211
Philipp@@ 211
Program@@ 211
Reak@@ 211
Tie@@ 211
Ungleich@@ 211
Unterdrückung 211
acci@@ 211
ansonsten 211
ax 211
biegen 211
burning 211
cap 211
chemistry 211
cookies 211
dras@@ 211
endgültigen 211
eurozone 211
furcht@@ 211
gemütliche 211
grafie 211
großartigen 211
hosts 211
immense 211
imported 211
inspiri@@ 211
invention 211
kriterien 211
onal 211
platforms 211
pounds 211
saf@@ 211
schock@@ 211
situ@@ 211
stim@@ 211
substantially 211
telecommunications 211
thanking 211
tured 211
unions 211
unzureichend 211
verbindungen 211
verzö@@ 211
Ära 211
Angriffe 210
Billi@@ 210
CC 210
Corporation 210
Erkrankungen 210
Experim@@ 210
Geben 210
Gef@@ 210
Gur@@ 210
Jacques 210
Kluft 210
Lithuania 210
Motto 210
Rek@@ 210
Santer 210
Sens@@ 210
Studium 210
XML 210
anwal@@ 210
artiges 210
außen@@ 210
außergewöhnliche 210
außerord@@ 210
aya 210
behandlung 210
capitalism 210
dä@@ 210
erneuerbare 210
frucht@@ 210
hoff@@ 210
jähriger 210
ktoren 210
leng@@ 210
luck 210
lusses 210
ländische 210
länge 210
maj@@ 210
marking 210
medizin@@ 210
musicians 210
neighbourhood 210
ohnehin 210
ommene 210
ouring 210
passi@@ 210
platten 210
portra@@ 210
recei@@ 210
receives 210
reiterate 210
ssier 210
ssigen 210
supplementary 210
survi@@ 210
tags@@ 210
tigem 210
undermine 210
unterstütz@@ 210
verdi@@ 210
weapon 210
wirkungen 210
workshops 210
zimmern 210
Änderungs@@ 210
29. 209
400@@ 209
Add 209
Change 209
Engli@@ 209
Erhalt 209
Europar@@ 209
Frank@@ 209
Fußball@@ 209
GR@@ 209
Heil@@ 209
Inhalten 209
Kamer@@ 209
Konferenzen 209
Laptop 209
Lehren 209
Lom@@ 209
Malaria 209
Parag@@ 209
Ratspräsident 209
Rechnungs@@ 209
Steuerzahler 209
Tampere 209
World@@ 209
afri@@ 209
agent 209
angeblich 209
angen@@ 209
assurance 209
berufliche 209
chart 209
chip 209
[...]
